<?xml version="1.0"?>
<opencv_storage>
<cascade>
  <stageType>BOOST</stageType>
  <featureType>LBP</featureType>
  <height>49</height>
  <width>49</width>
  <stageParams>
    <boostType>GAB</boostType>
    <minHitRate>9.9900001287460327e-001</minHitRate>
    <maxFalseAlarm>5.0000000000000000e-001</maxFalseAlarm>
    <weightTrimRate>9.4999999999999996e-001</weightTrimRate>
    <maxDepth>1</maxDepth>
    <maxWeakCount>100</maxWeakCount></stageParams>
  <featureParams>
    <maxCatCount>256</maxCatCount>
    <featSize>1</featSize></featureParams>
  <stageNum>21</stageNum>
  <stages>
    <!-- stage 0 -->
    <_>
      <maxWeakCount>5</maxWeakCount>
      <stageThreshold>-1.3798121213912964e+000</stageThreshold>
      <weakClassifiers>
        <_>
          <internalNodes>
            0 -1 81 -730800912 -539950656 1346408561 -648211247 -2113537
            -70284661 -15992065 -1105</internalNodes>
          <leafValues>
            -8.4057176113128662e-001 4.4792547821998596e-001</leafValues></_>
        <_>
          <internalNodes>
            0 -1 46 1933560823 320811663 621377951 395540991 795500027
            1006334951 -1479816981 265284607</internalNodes>
          <leafValues>
            -8.0839163064956665e-001 4.2000383138656616e-001</leafValues></_>
        <_>
          <internalNodes>
            0 -1 28 -33428280 622902239 -1869357857 -10512485 -721362195
            -1144790787 1023474687 -1049681</internalNodes>
          <leafValues>
            -6.4381223917007446e-001 4.6138623356819153e-001</leafValues></_>
        <_>
          <internalNodes>
            0 -1 129 1060507409 785153821 -928810851 -1564478504
            969893205 -617108843 -1192279244 -36867</internalNodes>
          <leafValues>
            -7.4332571029663086e-001 3.7981262803077698e-001</leafValues></_>
        <_>
          <internalNodes>
            0 -1 128 1346848393 -675556722 -268418134 -1618030206
            1250108079 -826760995 1697138826 -98829554</internalNodes>
          <leafValues>
            -5.5802863836288452e-001 5.3315091133117676e-001</leafValues></_></weakClassifiers></_>
    <!-- stage 1 -->
    <_>
      <maxWeakCount>7</maxWeakCount>
      <stageThreshold>-2.4596185684204102e+000</stageThreshold>
      <weakClassifiers>
        <_>
          <internalNodes>
            0 -1 58 1359212823 287514419 -1112804899 -537011745
            -774507265 -1081363766 -75235329 -529</internalNodes>
          <leafValues>
            -7.0174562931060791e-001 4.0904521942138672e-001</leafValues></_>
        <_>
          <internalNodes>
            0 -1 70 -67307312 -673259300 -1866414992 1473614541
            -392653854 -1197629309 -1575841861 -5263441</internalNodes>
          <leafValues>
            -7.2901958227157593e-001 3.9683052897453308e-001</leafValues></_>
        <_>
          <internalNodes>
            0 -1 66 -52435717 1004134302 -2146530817 1001592606
            -389173521 1004243609 -1474524977 184535230</internalNodes>
          <leafValues>
            -6.4453220367431641e-001 3.9115297794342041e-001</leafValues></_>
        <_>
          <internalNodes>
            0 -1 69 -735977184 -1691305459 -809329297 -575161477
            -1060849264 -1084108385 1355216127 -268436289</internalNodes>
          <leafValues>
            -6.4808148145675659e-001 4.1175734996795654e-001</leafValues></_>
        <_>
          <internalNodes>
            0 -1 15 -822086145 -1604296229 -1940540436 -1568501754
            1642064670 553877508 -1165170185 -466174233</internalNodes>
          <leafValues>
            -5.8247047662734985e-001 4.4839191436767578e-001</leafValues></_>
        <_>
          <internalNodes>
            0 -1 55 714224447 551076053 -753821291 -353856764 708921435
            -662548305 -70632477 -823604240</internalNodes>
          <leafValues>
            -7.0665127038955688e-001 3.7656751275062561e-001</leafValues></_>
        <_>
          <internalNodes>
            0 -1 116 219945781 -1478678568 -1660724803 -70020302
            1430548977 -1431594869 -367365135 -45109052</internalNodes>
          <leafValues>
            -6.5618681907653809e-001 3.8347843289375305e-001</leafValues></_></weakClassifiers></_>
    <!-- stage 2 -->
    <_>
      <maxWeakCount>6</maxWeakCount>
      <stageThreshold>-1.6799288988113403e+000</stageThreshold>
      <weakClassifiers>
        <_>
          <internalNodes>
            0 -1 72 -24665169 -10543853 -1139736269 -14864325 -41637205
            -1178900087 -1465271893 -8410693</internalNodes>
          <leafValues>
            -7.0285713672637939e-001 3.2837209105491638e-001</leafValues></_>
        <_>
          <internalNodes>
            0 -1 74 1344393233 285398283 -15339401 -47724865 1458565365
            -6565149 -166470213 -80743457</internalNodes>
          <leafValues>
            -6.3461136817932129e-001 3.3545050024986267e-001</leafValues></_>
        <_>
          <internalNodes>
            0 -1 159 -2030171345 -1570873509 1712775255 -327362593
            1520306758 -1079312341 -1467287280 -287377482</internalNodes>
          <leafValues>
            -6.3226270675659180e-001 3.2320952415466309e-001</leafValues></_>
        <_>
          <internalNodes>
            0 -1 51 -67248388 -586919532 -651816821 -650051107
            1581830584 -1082076986 289428653 -855339654</internalNodes>
          <leafValues>
            -5.4516321420669556e-001 4.2531505227088928e-001</leafValues></_>
        <_>
          <internalNodes>
            0 -1 56 -778960897 1091692880 973779384 865312615 -53591885
            -34094901 -768965698 598455295</internalNodes>
          <leafValues>
            -4.8693880438804626e-001 4.5529395341873169e-001</leafValues></_>
        <_>
          <internalNodes>
            0 -1 62 649232255 -2145873474 -1874210567 -429247050
            -1691668165 -289916925 -120000387 -856883628</internalNodes>
          <leafValues>
            -6.4205265045166016e-001 3.6643213033676147e-001</leafValues></_></weakClassifiers></_>
    <!-- stage 3 -->
    <_>
      <maxWeakCount>9</maxWeakCount>
      <stageThreshold>-1.7103598117828369e+000</stageThreshold>
      <weakClassifiers>
        <_>
          <internalNodes>
            0 -1 105 -1054006 -42253309 -1026893312 -3151290 -195888454
            -780082023 -2087148884 -32006</internalNodes>
          <leafValues>
            -7.2799998521804810e-001 1.3309091329574585e-001</leafValues></_>
        <_>
          <internalNodes>
            0 -1 10 -238783238 -68144152 -586923767 -33567845 492880875
            -255999558 -13190145 -5250405</internalNodes>
          <leafValues>
            -5.7945269346237183e-001 3.5133203864097595e-001</leafValues></_>
        <_>
          <internalNodes>
            0 -1 155 -1409292753 -2034510514 1426188710 -1395165938
            -88132057 -122877698 -123765978 -11009</internalNodes>
          <leafValues>
            -5.5634123086929321e-001 3.6787363886833191e-001</leafValues></_>
        <_>
          <internalNodes>
            0 -1 97 -1122230723 2147236496 -720635425 -1650618251
            -1291298123 -1886350953 -1358300887 -1367594812</internalNodes>
          <leafValues>
            -5.2171891927719116e-001 4.3297657370567322e-001</leafValues></_>
        <_>
          <internalNodes>
            0 -1 68 1366815921 1001887661 -50146947 -1249128293
            1233877243 -1078876021 -880423205 -1086330725</internalNodes>
          <leafValues>
            -4.5604315400123596e-001 4.6465343236923218e-001</leafValues></_>
        <_>
          <internalNodes>
            0 -1 183 734992165 248650631 -263478817 -301027111 471482485
            -563380221 -39910283 -864785631</internalNodes>
          <leafValues>
            -6.8741118907928467e-001 3.2039174437522888e-001</leafValues></_>
        <_>
          <internalNodes>
            0 -1 83 -150169348 1606219167 1409582950 2072171302
            1754451656 227803849 -803075634 -1473459644</internalNodes>
          <leafValues>
            -6.1641293764114380e-001 3.1788226962089539e-001</leafValues></_>
        <_>
          <internalNodes>
            0 -1 2 -494213634 -719830590 16962634 -771610221 637567891
            -937377534 271991948 1249265763</internalNodes>
          <leafValues>
            -6.0385262966156006e-001 3.5643145442008972e-001</leafValues></_>
        <_>
          <internalNodes>
            0 -1 94 -456000288 -522778484 1883281332 -112131653
            -1697918037 -87162174 69274008 -1590789</internalNodes>
          <leafValues>
            -6.5756702423095703e-001 3.1270208954811096e-001</leafValues></_></weakClassifiers></_>
    <!-- stage 4 -->
    <_>
      <maxWeakCount>9</maxWeakCount>
      <stageThreshold>-1.1304150819778442e+000</stageThreshold>
      <weakClassifiers>
        <_>
          <internalNodes>
            0 -1 73 1409282559 865694621 -1583753219 -1142433643
            -142417925 -1115322632 -37094964 -1078461794</internalNodes>
          <leafValues>
            -6.1942917108535767e-001 2.3629112541675568e-001</leafValues></_>
        <_>
          <internalNodes>
            0 -1 39 -289413121 -287925793 1482923615 -321202540
            -701371535 -742655286 1841674655 -298131372</internalNodes>
          <leafValues>
            -5.2536410093307495e-001 3.5177233815193176e-001</leafValues></_>
        <_>
          <internalNodes>
            0 -1 93 -265769557 -546107075 -1869544903 -583202553
            -1605595733 -1181441827 349801647 2108335003</internalNodes>
          <leafValues>
            -5.2125024795532227e-001 3.6272880434989929e-001</leafValues></_>
        <_>
          <internalNodes>
            0 -1 145 -1501612201 785873439 -76982881 -1402833427
            -339132553 -75120495 -556316178 -1432688402</internalNodes>
          <leafValues>
            -5.2944475412368774e-001 3.6687156558036804e-001</leafValues></_>
        <_>
          <internalNodes>
            0 -1 114 -546171403 -683830878 -1048456299 -35686037
            -1797655879 -761681525 -626200371 -1094691872</internalNodes>
          <leafValues>
            -4.5336195826530457e-001 4.4134765863418579e-001</leafValues></_>
        <_>
          <internalNodes>
            0 -1 63 -733814996 -134151318 -2054482704 528468355
            -704475000 -1467694592 -749707196 -786041277</internalNodes>
          <leafValues>
            -5.4179584980010986e-001 3.6753064393997192e-001</leafValues></_>
        <_>
          <internalNodes>
            0 -1 154 1933722415 -1831506034 -1538669157 28300704
            1094877150 -84305713 1962164511 -286895358</internalNodes>
          <leafValues>
            -5.1097309589385986e-001 3.6557692289352417e-001</leafValues></_>
        <_>
          <internalNodes>
            0 -1 57 -1216731275 -255422032 -645539841 -853057084
            974274096 -1063206262 -1652307087 -354918031</internalNodes>
          <leafValues>
            -5.4781740903854370e-001 3.7626338005065918e-001</leafValues></_>
        <_>
          <internalNodes>
            0 -1 173 -252184099 737245097 -277520581 1903423315
            1415381131 -67141769 2000299999 -46377122</internalNodes>
          <leafValues>
            -3.8670161366462708e-001 5.3260993957519531e-001</leafValues></_></weakClassifiers></_>
    <!-- stage 5 -->
    <_>
      <maxWeakCount>9</maxWeakCount>
      <stageThreshold>-1.3885860443115234e+000</stageThreshold>
      <weakClassifiers>
        <_>
          <internalNodes>
            0 -1 59 -11010305 1431339280 588223247 -38986919 -1967094901
            -1197987356 -482901073 -545260817</internalNodes>
          <leafValues>
            -5.7549858093261719e-001 2.3713646829128265e-001</leafValues></_>
        <_>
          <internalNodes>
            0 -1 180 -297831629 788353279 1468351871 -922825506
            1541344037 -106226182 -347985035 -17106261</internalNodes>
          <leafValues>
            -5.1293271780014038e-001 3.3755591511726379e-001</leafValues></_>
        <_>
          <internalNodes>
            0 -1 76 243932539 -1074267044 1962996439 -1616494178
            -1818289165 -281308933 -241476615 -1075442219</internalNodes>
          <leafValues>
            -4.9382752180099487e-001 3.5789254307746887e-001</leafValues></_>
        <_>
          <internalNodes>
            0 -1 132 2103436426 966235590 1812449734 602053382 33705547
            -1820441413 -225820126 -1057234161</internalNodes>
          <leafValues>
            -5.5696350336074829e-001 3.1410861015319824e-001</leafValues></_>
        <_>
          <internalNodes>
            0 -1 146 147525937 1860854495 1477109723 -1100071553
            -1878377711 -1163353975 -1074918556 -1429726352</internalNodes>
          <leafValues>
            -6.3485157489776611e-001 2.8871512413024902e-001</leafValues></_>
        <_>
          <internalNodes>
            0 -1 95 -794562301 -1725890629 -1224736811 -67895305
            -1527449868 -39323777 -587729420 -805442049</internalNodes>
          <leafValues>
            -4.0361949801445007e-001 4.5548763871192932e-001</leafValues></_>
        <_>
          <internalNodes>
            0 -1 21 -898648337 -1037775011 -268175205 -1598238464
            2004995030 1367048585 -569837523 -189270767</internalNodes>
          <leafValues>
            -5.2881747484207153e-001 3.7013247609138489e-001</leafValues></_>
        <_>
          <internalNodes>
            0 -1 44 -1026661700 -1108160137 1929709126 932217103
            -1873596769 -6819591 -1193030520 2028193932</internalNodes>
          <leafValues>
            -5.3587180376052856e-001 3.6934122443199158e-001</leafValues></_>
        <_>
          <internalNodes>
            0 -1 150 -1433461191 -1405330994 -259172353 -1978740138
            -116924303 701141176 -91390859 -318969004</internalNodes>
          <leafValues>
            -6.7315858602523804e-001 2.9787456989288330e-001</leafValues></_></weakClassifiers></_>
    <!-- stage 6 -->
    <_>
      <maxWeakCount>9</maxWeakCount>
      <stageThreshold>-1.2870621681213379e+000</stageThreshold>
      <weakClassifiers>
        <_>
          <internalNodes>
            0 -1 71 -114168323 -174343009 -1055601251 -1123707477
            -1007573331 -105840560 -325547601 -12744049</internalNodes>
          <leafValues>
            -5.6485354900360107e-001 2.5323909521102905e-001</leafValues></_>
        <_>
          <internalNodes>
            0 -1 115 691230481 -1282165353 -1829284483 -170155647
            446284453 -49051134 1268166225 -36705333</internalNodes>
          <leafValues>
            -5.0420129299163818e-001 3.2810875773429871e-001</leafValues></_>
        <_>
          <internalNodes>
            0 -1 9 -496313761 1649074318 -2142232268 1811957841
            1254249455 2818593 -977079314 -25207065</internalNodes>
          <leafValues>
            -4.2726597189903259e-001 3.9137434959411621e-001</leafValues></_>
        <_>
          <internalNodes>
            0 -1 42 1367077109 883110927 -385771013 261039527 223042805
            833832075 -1922342497 1002271663</internalNodes>
          <leafValues>
            -5.6182479858398438e-001 3.1857240200042725e-001</leafValues></_>
        <_>
          <internalNodes>
            0 -1 122 2085415676 -573734388 -1073584682 -6995776
            -792291094 441994400 -1300003138 -542205202</internalNodes>
          <leafValues>
            -5.7263958454132080e-001 3.2539430260658264e-001</leafValues></_>
        <_>
          <internalNodes>
            0 -1 163 -1770134454 -205072249 -2071724026 -242722297
            1081159937 279118337 -410955281 -1827256001</internalNodes>
          <leafValues>
            -5.5257868766784668e-001 3.2033255696296692e-001</leafValues></_>
        <_>
          <internalNodes>
            0 -1 50 1104805018 1364804117 -1718958693 1439692963
            -896866933 -573349740 -1570063938 -1727818919</internalNodes>
          <leafValues>
            -4.8670691251754761e-001 3.6793938279151917e-001</leafValues></_>
        <_>
          <internalNodes>
            0 -1 161 -1499743629 -1600989858 -804727460 -1976795106
            -762630111 -1952972792 -1685222826 -289417006</internalNodes>
          <leafValues>
            -5.1627957820892334e-001 3.5268509387969971e-001</leafValues></_>
        <_>
          <internalNodes>
            0 -1 33 538796346 -656834348 1527010783 -1424223358
            122851560 -303037552 -894439191 2140979532</internalNodes>
          <leafValues>
            -4.7248822450637817e-001 3.9802840352058411e-001</leafValues></_></weakClassifiers></_>
    <!-- stage 7 -->
    <_>
      <maxWeakCount>10</maxWeakCount>
      <stageThreshold>-1.3687031269073486e+000</stageThreshold>
      <weakClassifiers>
        <_>
          <internalNodes>
            0 -1 79 -201866514 -71986221 -1722629385 1068207872
            -873222449 -231636301 -1364082002 699386542</internalNodes>
          <leafValues>
            -6.7055773735046387e-001 2.3319615051150322e-002</leafValues></_>
        <_>
          <internalNodes>
            0 -1 67 -183111423 -1148737781 440530349 -638858849
            -660946689 -1464106343 -87039285 -272639089</internalNodes>
          <leafValues>
            -4.3190339207649231e-001 3.6957234144210815e-001</leafValues></_>
        <_>
          <internalNodes>
            0 -1 178 718483245 777840479 -1358896815 215489487
            -225815947 -913676173 -360567966 -1360086410</internalNodes>
          <leafValues>
            -6.3457399606704712e-001 2.5862050056457520e-001</leafValues></_>
        <_>
          <internalNodes>
            0 -1 138 -738198068 1384897217 -1926971391 -74997644 59388
            1246301840 1778391914 -68176186</internalNodes>
          <leafValues>
            -4.8921599984169006e-001 3.4319293498992920e-001</leafValues></_>
        <_>
          <internalNodes>
            0 -1 14 -287380889 -1538375523 -1793418445 1654822740
            -2096664728 1639661743 -1375329359 1417391057</internalNodes>
          <leafValues>
            -5.9006571769714355e-001 2.9218885302543640e-001</leafValues></_>
        <_>
          <internalNodes>
            0 -1 152 -1156926472 272667556 429939101 -543624828
            1489148634 -1476321086 1867254926 630151772</internalNodes>
          <leafValues>
            -4.9421313405036926e-001 3.4100434184074402e-001</leafValues></_>
        <_>
          <internalNodes>
            0 -1 61 858126368 155803743 1565724543 -1244953493
            -1875763055 -13981488 -2138438513 -1143092993</internalNodes>
          <leafValues>
            -5.1339238882064819e-001 3.1711187958717346e-001</leafValues></_>
        <_>
          <internalNodes>
            0 -1 85 2013292088 286363905 -1610250020 700567890
            1360136642 -1189010789 -632697269 146144575</internalNodes>
          <leafValues>
            -6.7382240295410156e-001 2.4169421195983887e-001</leafValues></_>
        <_>
          <internalNodes>
            0 -1 187 1078070845 -1621863853 -1542929957 -1307438502
            -343770116 -24763704 -366916625 -7312587</internalNodes>
          <leafValues>
            -4.8188662528991699e-001 3.4828498959541321e-001</leafValues></_>
        <_>
          <internalNodes>
            0 -1 98 -654411962 -1722779503 -1608476540 -741273394
            -251424356 -1981120352 -144080721 1537680155</internalNodes>
          <leafValues>
            -5.2131134271621704e-001 3.3774071931838989e-001</leafValues></_></weakClassifiers></_>
    <!-- stage 8 -->
    <_>
      <maxWeakCount>10</maxWeakCount>
      <stageThreshold>-1.4644864797592163e+000</stageThreshold>
      <weakClassifiers>
        <_>
          <internalNodes>
            0 -1 156 -2137003149 -1596309295 -250389739 -1402300269
            -3438017 -106260299 -612238527 -537214986</internalNodes>
          <leafValues>
            -6.7012989521026611e-001 2.1917808800935745e-002</leafValues></_>
        <_>
          <internalNodes>
            0 -1 127 -1194451779 -773884933 -989507073 -495562805
            -111621900 -1149091677 -1199440978 -1434387480</internalNodes>
          <leafValues>
            -4.8775252699851990e-001 2.9485371708869934e-001</leafValues></_>
        <_>
          <internalNodes>
            0 -1 89 714347953 -1223097866 -1119304227 -69417059
            -1423283331 -70014583 -1165481451 -1432862383</internalNodes>
          <leafValues>
            -5.6438225507736206e-001 2.6334866881370544e-001</leafValues></_>
        <_>
          <internalNodes>
            0 -1 131 -110213424 -1143946510 -121611512 -1781743614
            1795363326 463012907 1988755498 1963228834</internalNodes>
          <leafValues>
            -5.3361475467681885e-001 2.9588979482650757e-001</leafValues></_>
        <_>
          <internalNodes>
            0 -1 88 -837816658 831897911 -1471992690 855884210 990381267
            448828273 -1442713910 -1143083653</internalNodes>
          <leafValues>
            -5.6378388404846191e-001 2.8045353293418884e-001</leafValues></_>
        <_>
          <internalNodes>
            0 -1 104 965619761 -1611526063 -788405473 -543694640
            -1458793539 -1434255230 -1190444384 -1096920072</internalNodes>
          <leafValues>
            -4.7428822517395020e-001 3.3669888973236084e-001</leafValues></_>
        <_>
          <internalNodes>
            0 -1 22 1585935783 -296947515 -1861397983 -1034791288
            1225356139 -921720785 -1702679989 -515383729</internalNodes>
          <leafValues>
            -4.2193603515625000e-001 4.1286018490791321e-001</leafValues></_>
        <_>
          <internalNodes>
            0 -1 179 1039050950 -528345708 1125352214 -2092396334
            612926864 -1833516888 -76902243 218165147</internalNodes>
          <leafValues>
            -5.5438643693923950e-001 3.0280852317810059e-001</leafValues></_>
        <_>
          <internalNodes>
            0 -1 43 619889501 -293150068 -1056874417 -498430854
            1238168031 -1144807281 -1950769325 -1701026348</internalNodes>
          <leafValues>
            -6.1775982379913330e-001 2.6459193229675293e-001</leafValues></_>
        <_>
          <internalNodes>
            0 -1 130 1148723384 -207749063 1896222869 529417035
            826295384 -79617888 1980447439 437412594</internalNodes>
          <leafValues>
            -5.6478804349899292e-001 2.9366889595985413e-001</leafValues></_></weakClassifiers></_>
    <!-- stage 9 -->
    <_>
      <maxWeakCount>12</maxWeakCount>
      <stageThreshold>-1.2133311033248901e+000</stageThreshold>
      <weakClassifiers>
        <_>
          <internalNodes>
            0 -1 139 1961576143 1374482567 -422361297 -1350183006
            1368542683 -222101126 2026118020 -33558780</internalNodes>
          <leafValues>
            -6.1921298503875732e-001 5.5031444877386093e-002</leafValues></_>
        <_>
          <internalNodes>
            0 -1 52 1406652723 734622191 152065585 -2501688 1346966690
            -605042248 -880231673 -1726406</internalNodes>
          <leafValues>
            -4.3625801801681519e-001 3.1528267264366150e-001</leafValues></_>
        <_>
          <internalNodes>
            0 -1 175 -1900663017 -1361586082 1350927689 -1508068987
            327184949 -15097853 2091600416 -320406032</internalNodes>
          <leafValues>
            -6.0183250904083252e-001 2.3239310085773468e-001</leafValues></_>
        <_>
          <internalNodes>
            0 -1 34 -1393897774 2146352738 -1142505795 2032177141
            -1082788371 -827711491 -1107964833 -1418393743</internalNodes>
          <leafValues>
            -3.7108376622200012e-001 3.9770752191543579e-001</leafValues></_>
        <_>
          <internalNodes>
            0 -1 45 1049616604 312144020 1322813377 531859474 165913831
            2092996626 -1964988210 981371048</internalNodes>
          <leafValues>
            -6.2736940383911133e-001 2.4999554455280304e-001</leafValues></_>
        <_>
          <internalNodes>
            0 -1 11 -359993729 -1572560830 135041050 838082970 67246295
            1401507360 1133069743 -680825145</internalNodes>
          <leafValues>
            -4.3588998913764954e-001 3.6389607191085815e-001</leafValues></_>
        <_>
          <internalNodes>
            0 -1 121 -1349714639 232480918 -1694412395 -573625955
            865120441 -1296608774 -1685648843 -823406348</internalNodes>
          <leafValues>
            -4.3970537185668945e-001 3.5505217313766479e-001</leafValues></_>
        <_>
          <internalNodes>
            0 -1 23 2118877181 1503089050 -1223337521 -256896714
            1478115671 -1173350367 705248578 -1842988246</internalNodes>
          <leafValues>
            -4.1417714953422546e-001 3.8046863675117493e-001</leafValues></_>
        <_>
          <internalNodes>
            0 -1 24 -1310655132 1629286460 -2120347233 1493209373
            1454139939 -66387762 -1994356413 -1159980319</internalNodes>
          <leafValues>
            -5.6513255834579468e-001 2.8342378139495850e-001</leafValues></_>
        <_>
          <internalNodes>
            0 -1 151 -1843167492 -1873799156 -1051164323 429573141
            680352415 -377443955 940398779 246381230</internalNodes>
          <leafValues>
            -4.4339224696159363e-001 3.6819505691528320e-001</leafValues></_>
        <_>
          <internalNodes>
            0 -1 185 35320031 -205094442 -863049231 -1082207002
            713705660 -1109799269 2051832272 -85938096</internalNodes>
          <leafValues>
            -4.4235119223594666e-001 3.7119886279106140e-001</leafValues></_>
        <_>
          <internalNodes>
            0 -1 133 -564146518 2083968302 -925888024 -1783727959
            155265199 21513 1220621326 -323206705</internalNodes>
          <leafValues>
            -4.9683159589767456e-001 3.3901780843734741e-001</leafValues></_></weakClassifiers></_>
    <!-- stage 10 -->
    <_>
      <maxWeakCount>11</maxWeakCount>
      <stageThreshold>-1.4390368461608887e+000</stageThreshold>
      <weakClassifiers>
        <_>
          <internalNodes>
            0 -1 144 479196415 -606891561 -1635133957 -1201776417
            -628836001 -71710288 -1694246314 -623883584</internalNodes>
          <leafValues>
            -6.0290825366973877e-001 6.4356438815593719e-002</leafValues></_>
        <_>
          <internalNodes>
            0 -1 149 -1511019774 134895014 149962768 -1396156402
            362416133 1032364207 -427181261 -33561945</internalNodes>
          <leafValues>
            -6.3901638984680176e-001 1.8197582662105560e-001</leafValues></_>
        <_>
          <internalNodes>
            0 -1 102 -27538195 424915161 1074908366 149737526 -614838133
            -1734752064 -85750516 -2009490802</internalNodes>
          <leafValues>
            -5.0721418857574463e-001 2.6719820499420166e-001</leafValues></_>
        <_>
          <internalNodes>
            0 -1 172 1886443592 -200879993 402673923 -788277934
            1447783631 176982626 1645947723 -211071111</internalNodes>
          <leafValues>
            -4.1719090938568115e-001 3.3853912353515625e-001</leafValues></_>
        <_>
          <internalNodes>
            0 -1 60 -784473824 -1620718929 537266447 501715458
            -804209496 -70525918 -456073136 -647241581</internalNodes>
          <leafValues>
            -5.2639108896255493e-001 2.6848182082176208e-001</leafValues></_>
        <_>
          <internalNodes>
            0 -1 113 -1665966849 -570953859 2130603987 330166269
            -74449682 -629147652 804671298 -352697144</internalNodes>
          <leafValues>
            -3.2030624151229858e-001 4.8215234279632568e-001</leafValues></_>
        <_>
          <internalNodes>
            0 -1 7 -992217657 -888160050 1234543024 -207837270 138788346
            1077141507 1108235335 -1913692527</internalNodes>
          <leafValues>
            -3.9379081130027771e-001 3.8369390368461609e-001</leafValues></_>
        <_>
          <internalNodes>
            0 -1 166 520159220 1075670 -1878959985 -1622437632
            -1852969989 -1632710128 218655416 -1913558689</internalNodes>
          <leafValues>
            -3.7617027759552002e-001 4.0272936224937439e-001</leafValues></_>
        <_>
          <internalNodes>
            0 -1 171 1238509079 -304164399 -889006689 -1361914596
            -1434382235 -1793358949 -1211572428 -53315024</internalNodes>
          <leafValues>
            -5.5174231529235840e-001 2.7005195617675781e-001</leafValues></_>
        <_>
          <internalNodes>
            0 -1 100 -793846790 -1069527026 704649608 -602554170
            1101236910 -308281194 1770070575 1539449666</internalNodes>
          <leafValues>
            -4.8245975375175476e-001 3.2722485065460205e-001</leafValues></_>
        <_>
          <internalNodes>
            0 -1 36 -1666766951 2144666119 877235614 232498457 707315487
            1827238164 -1442596212 2104309809</internalNodes>
          <leafValues>
            -5.1613789796829224e-001 2.8920263051986694e-001</leafValues></_></weakClassifiers></_>
    <!-- stage 11 -->
    <_>
      <maxWeakCount>11</maxWeakCount>
      <stageThreshold>-1.3948336839675903e+000</stageThreshold>
      <weakClassifiers>
        <_>
          <internalNodes>
            0 -1 137 414473205 -573312321 -553591819 -129231426
            -1825842756 -2391883 2073064276 -92612732</internalNodes>
          <leafValues>
            -6.0861968994140625e-001 3.5074044018983841e-002</leafValues></_>
        <_>
          <internalNodes>
            0 -1 148 1902462499 419748526 -2076027998 1527768718
            1346716619 806103251 1363833894 -674532830</internalNodes>
          <leafValues>
            -5.4181456565856934e-001 2.0788335800170898e-001</leafValues></_>
        <_>
          <internalNodes>
            0 -1 91 -264229 -136651101 -32906 -542045441 -29884673
            -1528529506 -101482521 -682286029</internalNodes>
          <leafValues>
            -3.1998190283775330e-001 4.2881089448928833e-001</leafValues></_>
        <_>
          <internalNodes>
            0 -1 26 1783279106 780974722 -196743056 -575863710
            1544167727 1508510351 2005102887 -3194571</internalNodes>
          <leafValues>
            -5.3602230548858643e-001 2.4900449812412262e-001</leafValues></_>
        <_>
          <internalNodes>
            0 -1 184 173427927 1575551619 1082148795 -2041798447
            192294007 2014414024 -1969722881 -1561329579</internalNodes>
          <leafValues>
            -5.0051188468933105e-001 2.8870782256126404e-001</leafValues></_>
        <_>
          <internalNodes>
            0 -1 92 -70612486 -17055745 1068424383 -609550405 -122714226
            -827408577 -1615704177 -206770994</internalNodes>
          <leafValues>
            -3.6270153522491455e-001 4.0955817699432373e-001</leafValues></_>
        <_>
          <internalNodes>
            0 -1 25 -621859894 -78508016 -1315821554 1076949139
            1476574139 -644779056 696264558 1481177647</internalNodes>
          <leafValues>
            -5.7555639743804932e-001 2.4951814115047455e-001</leafValues></_>
        <_>
          <internalNodes>
            0 -1 160 -738199513 797725827 -247471726 -1405546086
            1634353734 455704604 -775689161 -144268757</internalNodes>
          <leafValues>
            -4.4015562534332275e-001 3.3987772464752197e-001</leafValues></_>
        <_>
          <internalNodes>
            0 -1 84 -1634699107 487637256 966790397 362270751 -905354224
            -5307462 -1155901269 -1374129351</internalNodes>
          <leafValues>
            -3.9727282524108887e-001 3.6559975147247314e-001</leafValues></_>
        <_>
          <internalNodes>
            0 -1 134 1140846499 96759701 -769202637 -236847450
            -948568097 1282760671 -537428482 -604504585</internalNodes>
          <leafValues>
            -3.6388161778450012e-001 4.1837149858474731e-001</leafValues></_>
        <_>
          <internalNodes>
            0 -1 78 1469640150 -984891192 -369081037 1183401569
            734061738 -1979030394 -209414005 -1300256536</internalNodes>
          <leafValues>
            -4.7383260726928711e-001 3.2491332292556763e-001</leafValues></_></weakClassifiers></_>
    <!-- stage 12 -->
    <_>
      <maxWeakCount>10</maxWeakCount>
      <stageThreshold>-1.1542280912399292e+000</stageThreshold>
      <weakClassifiers>
        <_>
          <internalNodes>
            0 -1 40 -7388641 -925765299 1493811615 -897261161
            -1165827157 966365353 -670779385 -29577720</internalNodes>
          <leafValues>
            -6.4605784416198730e-001 1.1236863583326340e-001</leafValues></_>
        <_>
          <internalNodes>
            0 -1 90 -801660413 -1315928447 1120485405 1628012778
            -1427392205 1881882800 8602848 -1064713945</internalNodes>
          <leafValues>
            -4.9038064479827881e-001 3.2699227333068848e-001</leafValues></_>
        <_>
          <internalNodes>
            0 -1 142 2031043000 1423243144 341644 -553627520 46945257
            1653457620 1879116058 1032794627</internalNodes>
          <leafValues>
            -5.8254295587539673e-001 2.7995505928993225e-001</leafValues></_>
        <_>
          <internalNodes>
            0 -1 4 -1910316634 239091970 826407301 -1652356912
            1406198144 1108271744 -1845419791 1141067872</internalNodes>
          <leafValues>
            -5.5033189058303833e-001 3.1466174125671387e-001</leafValues></_>
        <_>
          <internalNodes>
            0 -1 181 -835460433 -1257159520 -1056964329 638353923
            1228954180 -1207226335 -901092914 50422055</internalNodes>
          <leafValues>
            -4.8755365610122681e-001 3.4542149305343628e-001</leafValues></_>
        <_>
          <internalNodes>
            0 -1 1 -660478246 -1095304338 -319374379 -168427780
            -1644167847 -1100611659 -1216440644 -1721245700</internalNodes>
          <leafValues>
            -3.7393769621849060e-001 4.7931107878684998e-001</leafValues></_>
        <_>
          <internalNodes>
            0 -1 164 -1908025933 -1945171836 269570455 -1402042356
            -536328091 -1197965304 -1710724800 -869574625</internalNodes>
          <leafValues>
            -5.1546412706375122e-001 3.2636299729347229e-001</leafValues></_>
        <_>
          <internalNodes>
            0 -1 47 1951775820 1061454272 8912897 1217241129 -1870396536
            -94861935 -1072168789 -551581042</internalNodes>
          <leafValues>
            -6.2234121561050415e-001 2.9571142792701721e-001</leafValues></_>
        <_>
          <internalNodes>
            0 -1 101 -251420237 -128577448 285426607 470286360
            -1742202226 -889038462 50348410 930103655</internalNodes>
          <leafValues>
            -4.7169020771980286e-001 3.8764896988868713e-001</leafValues></_>
        <_>
          <internalNodes>
            0 -1 107 -125528044 657981808 -800980985 -1249307611
            -1576532273 -1064172923 830997499 687124188</internalNodes>
          <leafValues>
            -5.5974465608596802e-001 3.2370591163635254e-001</leafValues></_></weakClassifiers></_>
    <!-- stage 13 -->
    <_>
      <maxWeakCount>9</maxWeakCount>
      <stageThreshold>-2.0072782039642334e+000</stageThreshold>
      <weakClassifiers>
        <_>
          <internalNodes>
            0 -1 118 -2009049862 -238234493 -2144297643 822182161
            -758868551 -787070664 67148177 1048125577</internalNodes>
          <leafValues>
            -6.2306457757949829e-001 1.4818100631237030e-001</leafValues></_>
        <_>
          <internalNodes>
            0 -1 3 625457242 605159505 202442002 1072512080 -913196641
            568365120 604637344 1272637964</internalNodes>
          <leafValues>
            -6.0257399082183838e-001 2.3201061785221100e-001</leafValues></_>
        <_>
          <internalNodes>
            0 -1 29 1145719501 775057759 -1727950439 -1440989158
            957969211 1713619075 -485867361 -1337273739</internalNodes>
          <leafValues>
            -5.2105647325515747e-001 2.9665610194206238e-001</leafValues></_>
        <_>
          <internalNodes>
            0 -1 37 1344140085 556335746 -508095777 -1513701279
            1457874362 92834248 -498734748 729803199</internalNodes>
          <leafValues>
            -4.7259348630905151e-001 3.5163217782974243e-001</leafValues></_>
        <_>
          <internalNodes>
            0 -1 174 -372887493 -892792698 285950221 739328195
            -1710589403 -643792895 -132404991 -341862142</internalNodes>
          <leafValues>
            -4.7732979059219360e-001 3.3172947168350220e-001</leafValues></_>
        <_>
          <internalNodes>
            0 -1 153 762984816 1358987444 -1794091631 520249981
            -1952605778 -377175511 -636573335 733510656</internalNodes>
          <leafValues>
            -5.1794511079788208e-001 3.3138528466224670e-001</leafValues></_>
        <_>
          <internalNodes>
            0 -1 190 1291458013 -1224916995 -49217 1429413887 2147401727
            -1182793729 -184680514 -1095215891</internalNodes>
          <leafValues>
            -4.0925088524818420e-001 4.2597836256027222e-001</leafValues></_>
        <_>
          <internalNodes>
            0 -1 8 -156324222 -337236226 1056836851 -169212312
            -989978943 -1904377985 769468371 -742496270</internalNodes>
          <leafValues>
            -4.1174903512001038e-001 4.2090672254562378e-001</leafValues></_>
        <_>
          <internalNodes>
            0 -1 140 -245934644 431452315 -699379244 80991188
            -1874132215 838977601 -553096599 -361280950</internalNodes>
          <leafValues>
            -4.9787294864654541e-001 3.4437018632888794e-001</leafValues></_></weakClassifiers></_>
    <!-- stage 14 -->
    <_>
      <maxWeakCount>13</maxWeakCount>
      <stageThreshold>-1.5192853212356567e+000</stageThreshold>
      <weakClassifiers>
        <_>
          <internalNodes>
            0 -1 17 -153153777 -1371089062 -2095886005 576897610
            -79993793 1780191503 -376861133 -731398521</internalNodes>
          <leafValues>
            -6.3057327270507813e-001 -6.9930069148540497e-003</leafValues></_>
        <_>
          <internalNodes>
            0 -1 120 833302785 -1635128489 -801009330 -1923624563
            272930147 797221018 -1866270701 -23084131</internalNodes>
          <leafValues>
            -5.5676376819610596e-001 1.8637894093990326e-001</leafValues></_>
        <_>
          <internalNodes>
            0 -1 48 -260703821 966918059 -437258643 -438829057
            -455674625 -1428684801 1425929727 -537526401</internalNodes>
          <leafValues>
            -3.0949869751930237e-001 4.1163313388824463e-001</leafValues></_>
        <_>
          <internalNodes>
            0 -1 125 -43118412 -1218731296 -2130454407 -1249660509
            810433015 1925145323 709755723 367684096</internalNodes>
          <leafValues>
            -4.4984093308448792e-001 3.1713363528251648e-001</leafValues></_>
        <_>
          <internalNodes>
            0 -1 167 -244255249 -1083965505 1962112827 -482808013
            876156687 -142741633 -1477227138 -10092673</internalNodes>
          <leafValues>
            -3.4385836124420166e-001 3.9863976836204529e-001</leafValues></_>
        <_>
          <internalNodes>
            0 -1 49 719989303 -1428290945 269578572 -823207914
            1048593057 -1184034677 -532416286 -934780476</internalNodes>
          <leafValues>
            -6.8656933307647705e-001 2.0826949179172516e-001</leafValues></_>
        <_>
          <internalNodes>
            0 -1 169 20863795 101455771 -2126249419 -1126301305
            556378537 -116457298 -618497320 -1097176636</internalNodes>
          <leafValues>
            -5.0711059570312500e-001 2.4564184248447418e-001</leafValues></_>
        <_>
          <internalNodes>
            0 -1 20 1454563551 1152028849 71505939 559063824 -523514551
            587268225 -536241231 -151695728</internalNodes>
          <leafValues>
            -4.0895724296569824e-001 3.4603649377822876e-001</leafValues></_>
        <_>
          <internalNodes>
            0 -1 106 -854318863 1428896178 822186275 -1337003696
            1893925515 -904687567 581454596 -890840180</internalNodes>
          <leafValues>
            -4.4589722156524658e-001 3.3621791005134583e-001</leafValues></_>
        <_>
          <internalNodes>
            0 -1 168 -498357525 -2032664435 -2063360507 -330266304
            -1609611247 -628522976 1125055296 -50613626</internalNodes>
          <leafValues>
            -4.5877945423126221e-001 3.3567395806312561e-001</leafValues></_>
        <_>
          <internalNodes>
            0 -1 77 328182514 -95371254 286274967 993231016 -226458887
            1444675618 -1072820625 1600348773</internalNodes>
          <leafValues>
            -4.4716760516166687e-001 3.3876335620880127e-001</leafValues></_>
        <_>
          <internalNodes>
            0 -1 41 977543324 1458819391 19563754 -1121775524 -519957034
            51085489 329499855 1940671053</internalNodes>
          <leafValues>
            -5.1476866006851196e-001 3.1189993023872375e-001</leafValues></_>
        <_>
          <internalNodes>
            0 -1 31 -260053656 -1219591408 269123969 1458999500 20523837
            -1590394664 855679276 -737002657</internalNodes>
          <leafValues>
            -4.8514524102210999e-001 3.1887114048004150e-001</leafValues></_></weakClassifiers></_>
    <!-- stage 15 -->
    <_>
      <maxWeakCount>13</maxWeakCount>
      <stageThreshold>-1.6657463312149048e+000</stageThreshold>
      <weakClassifiers>
        <_>
          <internalNodes>
            0 -1 75 2103180634 668813593 1694583237 -36654779 310401185
            -1315741508 -1199509877 -1349799925</internalNodes>
          <leafValues>
            -6.3135844469070435e-001 4.1384499520063400e-002</leafValues></_>
        <_>
          <internalNodes>
            0 -1 157 818803124 1611309108 -1589570431 -1616440192
            466329785 -1347895281 247971488 10980911</internalNodes>
          <leafValues>
            -4.8426920175552368e-001 2.4402795732021332e-001</leafValues></_>
        <_>
          <internalNodes>
            0 -1 30 -538975009 2139804245 503927762 2050022654
            -997500502 -763293398 1233220757 1675083355</internalNodes>
          <leafValues>
            -3.9837002754211426e-001 3.2511430978775024e-001</leafValues></_>
        <_>
          <internalNodes>
            0 -1 32 176340656 -888108928 59084945 -1655699136
            -1090336593 1385611275 -823696901 1589735733</internalNodes>
          <leafValues>
            -4.4614565372467041e-001 3.2675343751907349e-001</leafValues></_>
        <_>
          <internalNodes>
            0 -1 12 -935606114 -829913429 -704116730 -1489368576
            -1033222102 -1904172926 1388996737 -851097019</internalNodes>
          <leafValues>
            -4.3696254491806030e-001 3.1709966063499451e-001</leafValues></_>
        <_>
          <internalNodes>
            0 -1 188 715918961 1213829141 -2007920297 -2006810555
            -276731886 -125796350 -1161760325 -1465382107</internalNodes>
          <leafValues>
            -5.4545825719833374e-001 2.4174687266349792e-001</leafValues></_>
        <_>
          <internalNodes>
            0 -1 123 -10075986 944297219 1678372645 1771143426
            -1407016842 1342228600 97372203 -584265566</internalNodes>
          <leafValues>
            -5.1284372806549072e-001 2.7603688836097717e-001</leafValues></_>
        <_>
          <internalNodes>
            0 -1 147 -1340061673 -256638584 822155763 -1188079455
            -241897811 159416514 244302375 834538949</internalNodes>
          <leafValues>
            -4.0020623803138733e-001 3.6681395769119263e-001</leafValues></_>
        <_>
          <internalNodes>
            0 -1 82 -2117058255 500699289 -1849593573 -1148908139
            -2002638026 -612235233 -922056003 -1945577455</internalNodes>
          <leafValues>
            -4.2547807097434998e-001 3.3743646740913391e-001</leafValues></_>
        <_>
          <internalNodes>
            0 -1 119 -990089886 1090579203 1093289744 1936778955
            1142624651 1267992586 1213966475 -740850873</internalNodes>
          <leafValues>
            -5.7937777042388916e-001 2.6204368472099304e-001</leafValues></_>
        <_>
          <internalNodes>
            0 -1 112 -1877481010 -754941487 -788421692 1422328139
            402727824 -910956496 -1995953924 724774987</internalNodes>
          <leafValues>
            -4.5008808374404907e-001 3.1963157653808594e-001</leafValues></_>
        <_>
          <internalNodes>
            0 -1 109 -1714908418 -1400501224 -1860140188 -1398006380
            811696269 -1333477208 -926447440 -850039829</internalNodes>
          <leafValues>
            -5.3468084335327148e-001 2.9668471217155457e-001</leafValues></_>
        <_>
          <internalNodes>
            0 -1 35 -613811776 1520564526 1715703815 -1027407678
            -368805783 738377752 2093156551 154110651</internalNodes>
          <leafValues>
            -4.9365553259849548e-001 3.1878536939620972e-001</leafValues></_></weakClassifiers></_>
    <!-- stage 16 -->
    <_>
      <maxWeakCount>9</maxWeakCount>
      <stageThreshold>-1.4023216962814331e+000</stageThreshold>
      <weakClassifiers>
        <_>
          <internalNodes>
            0 -1 103 -35655261 1099219907 -64499451 -140656219
            -2070497097 -1054760647 -1066203405 1150059695</internalNodes>
          <leafValues>
            -6.3605439662933350e-001 9.8705500364303589e-002</leafValues></_>
        <_>
          <internalNodes>
            0 -1 96 -1466633057 -34451185 -786922221 2106269791
            -1308574739 -259424111 -1734211074 -1206895939</internalNodes>
          <leafValues>
            -4.0417841076850891e-001 3.9179125428199768e-001</leafValues></_>
        <_>
          <internalNodes>
            0 -1 65 1103555581 -426635262 -821999970 -330906932
            1078581179 -1575976919 1410031888 -1937870206</internalNodes>
          <leafValues>
            -4.6650713682174683e-001 3.2411515712738037e-001</leafValues></_>
        <_>
          <internalNodes>
            0 -1 186 -636025600 981877003 -675081121 -1915931586
            -1642961103 -1677475577 1753526619 -1139784363</internalNodes>
          <leafValues>
            -5.1668989658355713e-001 2.8879764676094055e-001</leafValues></_>
        <_>
          <internalNodes>
            0 -1 108 -658462066 354210176 1342327880 882219012
            1615875276 286265473 1493296296 975159448</internalNodes>
          <leafValues>
            -5.2987045049667358e-001 3.0289980769157410e-001</leafValues></_>
        <_>
          <internalNodes>
            0 -1 6 -1350308657 -535396024 1359275009 -447715834
            -1440054990 30327179 9011408 1968172421</internalNodes>
          <leafValues>
            -4.1417747735977173e-001 3.5345217585563660e-001</leafValues></_>
        <_>
          <internalNodes>
            0 -1 176 -1008875691 -2138529120 -2053062573 -242560637
            1085072140 -652048310 -1425439978 -378844661</internalNodes>
          <leafValues>
            -4.1739714145660400e-001 3.6883419752120972e-001</leafValues></_>
        <_>
          <internalNodes>
            0 -1 54 1420766496 624072132 357369605 -1223409446 547996035
            -41778463 -1769430680 -509312884</internalNodes>
          <leafValues>
            -5.3443634510040283e-001 2.7887555956840515e-001</leafValues></_>
        <_>
          <internalNodes>
            0 -1 170 1120797842 -1341210038 -1735838506 105271421
            1405817071 -644865909 1570255410 1283733360</internalNodes>
          <leafValues>
            -6.5148413181304932e-001 2.0911246538162231e-001</leafValues></_></weakClassifiers></_>
    <!-- stage 17 -->
    <_>
      <maxWeakCount>9</maxWeakCount>
      <stageThreshold>-1.1676771640777588e+000</stageThreshold>
      <weakClassifiers>
        <_>
          <internalNodes>
            0 -1 165 -1948540110 -1467703232 -2062433801 -326205238
            -16010479 1476526495 -1568117901 -1903633563</internalNodes>
          <leafValues>
            -7.5433307886123657e-001 5.9772864915430546e-004</leafValues></_>
        <_>
          <internalNodes>
            0 -1 18 -601498036 1681985986 -786726396 571109970
            1374202655 1880242255 -123279964 1982265203</internalNodes>
          <leafValues>
            -6.0967618227005005e-001 2.1319368481636047e-001</leafValues></_>
        <_>
          <internalNodes>
            0 -1 38 -1735714058 -557878692 -1055911746 -2072735608
            8489210 1141441320 -1763668548 -1728046000</internalNodes>
          <leafValues>
            -6.2349838018417358e-001 2.1436659991741180e-001</leafValues></_>
        <_>
          <internalNodes>
            0 -1 189 -121032167 50860217 1107460948 168530817 -234812803
            -268009460 428640814 523782428</internalNodes>
          <leafValues>
            -5.5772113800048828e-001 2.8406170010566711e-001</leafValues></_>
        <_>
          <internalNodes>
            0 -1 117 -787852570 -998371042 -1723710996 370836118
            1807102165 -902496121 -1970896136 240259922</internalNodes>
          <leafValues>
            -5.7486814260482788e-001 2.4139565229415894e-001</leafValues></_>
        <_>
          <internalNodes>
            0 -1 191 86491392 -1084276729 -1056908079 747250304
            579593113 136024198 -933311626 -1932883942</internalNodes>
          <leafValues>
            -4.5481026172637939e-001 3.1347396969795227e-001</leafValues></_>
        <_>
          <internalNodes>
            0 -1 86 -1014840948 948461975 -872127546 1596785953 16801961
            -1610511822 1219856620 976676482</internalNodes>
          <leafValues>
            -5.9118729829788208e-001 2.3677885532379150e-001</leafValues></_>
        <_>
          <internalNodes>
            0 -1 19 1495648363 12732027 -511491443 -1379843435
            2048472170 269028946 756486812 205503359</internalNodes>
          <leafValues>
            -4.9350771307945251e-001 2.9578763246536255e-001</leafValues></_>
        <_>
          <internalNodes>
            0 -1 27 302653139 -1332993653 -922529725 1364396423
            -1853502975 -1736408945 251812515 1373576212</internalNodes>
          <leafValues>
            -4.7142136096954346e-001 3.1773611903190613e-001</leafValues></_></weakClassifiers></_>
    <!-- stage 18 -->
    <_>
      <maxWeakCount>11</maxWeakCount>
      <stageThreshold>-1.3214815855026245e+000</stageThreshold>
      <weakClassifiers>
        <_>
          <internalNodes>
            0 -1 64 1012084607 -354604969 -1961845090 -547680249
            1476434888 -895590138 1935684870 2098271685</internalNodes>
          <leafValues>
            -6.6846650838851929e-001 2.0731706917285919e-001</leafValues></_>
        <_>
          <internalNodes>
            0 -1 126 1345556168 -1810312941 -732954173 35672100
            2031240487 -1434359663 708313088 2030023200</internalNodes>
          <leafValues>
            -6.3413661718368530e-001 2.7344602346420288e-001</leafValues></_>
        <_>
          <internalNodes>
            0 -1 13 -859157773 -1602486064 -788397479 -2067642352
            335765777 1212189506 1115750546 1908986426</internalNodes>
          <leafValues>
            -5.2732795476913452e-001 2.8743723034858704e-001</leafValues></_>
        <_>
          <internalNodes>
            0 -1 99 528768304 -884750180 -1992231788 -574173173
            193501425 -133623607 163863556 -559231295</internalNodes>
          <leafValues>
            -5.4008555412292480e-001 2.7834945917129517e-001</leafValues></_>
        <_>
          <internalNodes>
            0 -1 158 1438882013 -642965246 -1962919496 738198533
            184608511 1809949448 1400992624 -561101836</internalNodes>
          <leafValues>
            -3.7215667963027954e-001 4.1619160771369934e-001</leafValues></_>
        <_>
          <internalNodes>
            0 -1 136 -1052914388 -703587940 -939407340 -1610153758
            -247399640 1635844161 9243337 -391142242</internalNodes>
          <leafValues>
            -5.3897178173065186e-001 2.9134246706962585e-001</leafValues></_>
        <_>
          <internalNodes>
            0 -1 87 1825968661 -680443561 1091043679 1762561296
            -1198499740 -1198849894 -225826631 -929021903</internalNodes>
          <leafValues>
            -4.9566677212715149e-001 3.1472820043563843e-001</leafValues></_>
        <_>
          <internalNodes>
            0 -1 135 -1746903780 -708944270 939521725 394202684
            892528115 -269344771 507409916 -1347215781</internalNodes>
          <leafValues>
            -3.1291916966438293e-001 5.1638990640640259e-001</leafValues></_>
        <_>
          <internalNodes>
            0 -1 162 1134488099 -653704825 -1073553196 2075279507
            -1825097147 1946320905 -611645709 -1071391958</internalNodes>
          <leafValues>
            -4.1441139578819275e-001 4.1677251458168030e-001</leafValues></_>
        <_>
          <internalNodes>
            0 -1 5 1518521086 -782993389 1346551811 -116963880
            -1524177973 -1870602239 -1567479791 1346582818</internalNodes>
          <leafValues>
            -4.9787548184394836e-001 3.4962967038154602e-001</leafValues></_>
        <_>
          <internalNodes>
            0 -1 111 -695213151 516481026 806297770 860971886 1791407619
            -1911488510 -1869790079 -984471462</internalNodes>
          <leafValues>
            -4.1166117787361145e-001 4.1161012649536133e-001</leafValues></_></weakClassifiers></_>
    <!-- stage 19 -->
    <_>
      <maxWeakCount>9</maxWeakCount>
      <stageThreshold>-1.2279757261276245e+000</stageThreshold>
      <weakClassifiers>
        <_>
          <internalNodes>
            0 -1 143 -20132305 -1504240191 1930526735 774009113
            -750449843 -1182038847 2050720546 -299202949</internalNodes>
          <leafValues>
            -6.4794439077377319e-001 9.3479968607425690e-002</leafValues></_>
        <_>
          <internalNodes>
            0 -1 53 202247249 -230447680 -1878985507 -485834236
            -1025337148 -24997886 160123854 -357283960</internalNodes>
          <leafValues>
            -5.6900769472122192e-001 2.4592861533164978e-001</leafValues></_>
        <_>
          <internalNodes>
            0 -1 16 1640415715 -2066296813 245907 1346474009 1344473101
            1249951752 -1693779693 2036591451</internalNodes>
          <leafValues>
            -4.2418810725212097e-001 3.2798010110855103e-001</leafValues></_>
        <_>
          <internalNodes>
            0 -1 80 1788402692 -168281132 -1055702763 -1118370857
            -670608657 -1148598254 -1423287411 747117577</internalNodes>
          <leafValues>
            -4.7752270102500916e-001 2.9321283102035522e-001</leafValues></_>
        <_>
          <internalNodes>
            0 -1 182 -1831355676 -1433775808 126045356 -585821944
            318822824 -2012575727 -1601818334 142695423</internalNodes>
          <leafValues>
            -4.5884341001510620e-001 3.3654204010963440e-001</leafValues></_>
        <_>
          <internalNodes>
            0 -1 110 -1987398224 -200162354 1352368261 -480646976
            673988382 765171880 1480609985 -867384669</internalNodes>
          <leafValues>
            -4.8682647943496704e-001 2.8742736577987671e-001</leafValues></_>
        <_>
          <internalNodes>
            0 -1 177 -232720737 -738992720 -25821381 -315113642
            -261324915 -1082138625 -1888656257 -404794037</internalNodes>
          <leafValues>
            -3.3564877510070801e-001 4.8361226916313171e-001</leafValues></_>
        <_>
          <internalNodes>
            0 -1 141 1463110249 275902834 1107677454 12935617 1947222571
            17825797 -129988544 1861136960</internalNodes>
          <leafValues>
            -5.3170800209045410e-001 3.0697545409202576e-001</leafValues></_>
        <_>
          <internalNodes>
            0 -1 124 -559019367 -1614925830 -35113 1501277814 -50858755
            -142706699 -285774153 -1209397279</internalNodes>
          <leafValues>
            -3.3486816287040710e-001 4.6220707893371582e-001</leafValues></_></weakClassifiers></_>
    <!-- stage 20 -->
    <_>
      <maxWeakCount>1</maxWeakCount>
      <stageThreshold>1.</stageThreshold>
      <weakClassifiers>
        <_>
          <internalNodes>
            0 -1 0 0 -1073741824 0 -1073708672 0 0 0 -397866880</internalNodes>
          <leafValues>
            -1. 1.</leafValues></_></weakClassifiers></_></stages>
  <features>
    <_>
      <rect>
        0 0 10 9</rect></_>
    <_>
      <rect>
        0 0 14 5</rect></_>
    <_>
      <rect>
        0 2 3 15</rect></_>
    <_>
      <rect>
        0 2 15 9</rect></_>
    <_>
      <rect>
        0 3 4 4</rect></_>
    <_>
      <rect>
        0 4 3 15</rect></_>
    <_>
      <rect>
        0 9 2 4</rect></_>
    <_>
      <rect>
        0 11 3 2</rect></_>
    <_>
      <rect>
        0 11 4 6</rect></_>
    <_>
      <rect>
        0 13 4 10</rect></_>
    <_>
      <rect>
        0 13 11 12</rect></_>
    <_>
      <rect>
        0 14 3 5</rect></_>
    <_>
      <rect>
        0 17 3 5</rect></_>
    <_>
      <rect>
        0 20 2 3</rect></_>
    <_>
      <rect>
        0 26 2 2</rect></_>
    <_>
      <rect>
        0 27 3 2</rect></_>
    <_>
      <rect>
        0 28 1 1</rect></_>
    <_>
      <rect>
        0 29 2 3</rect></_>
    <_>
      <rect>
        0 33 3 2</rect></_>
    <_>
      <rect>
        1 2 14 13</rect></_>
    <_>
      <rect>
        1 20 4 6</rect></_>
    <_>
      <rect>
        1 26 3 2</rect></_>
    <_>
      <rect>
        1 30 2 2</rect></_>
    <_>
      <rect>
        1 37 5 4</rect></_>
    <_>
      <rect>
        2 4 15 14</rect></_>
    <_>
      <rect>
        2 19 11 9</rect></_>
    <_>
      <rect>
        3 15 4 2</rect></_>
    <_>
      <rect>
        4 1 9 7</rect></_>
    <_>
      <rect>
        4 18 9 7</rect></_>
    <_>
      <rect>
        4 26 2 2</rect></_>
    <_>
      <rect>
        4 34 5 2</rect></_>
    <_>
      <rect>
        4 38 3 2</rect></_>
    <_>
      <rect>
        5 3 5 4</rect></_>
    <_>
      <rect>
        6 34 14 5</rect></_>
    <_>
      <rect>
        7 3 6 3</rect></_>
    <_>
      <rect>
        7 3 8 15</rect></_>
    <_>
      <rect>
        7 5 13 10</rect></_>
    <_>
      <rect>
        7 7 8 11</rect></_>
    <_>
      <rect>
        7 28 9 7</rect></_>
    <_>
      <rect>
        7 30 2 2</rect></_>
    <_>
      <rect>
        7 31 1 1</rect></_>
    <_>
      <rect>
        8 1 13 7</rect></_>
    <_>
      <rect>
        8 3 8 12</rect></_>
    <_>
      <rect>
        8 29 2 2</rect></_>
    <_>
      <rect>
        9 3 12 6</rect></_>
    <_>
      <rect>
        9 4 11 8</rect></_>
    <_>
      <rect>
        9 7 9 8</rect></_>
    <_>
      <rect>
        9 16 9 10</rect></_>
    <_>
      <rect>
        9 19 8 5</rect></_>
    <_>
      <rect>
        9 30 1 1</rect></_>
    <_>
      <rect>
        10 7 11 11</rect></_>
    <_>
      <rect>
        10 18 7 10</rect></_>
    <_>
      <rect>
        10 19 8 3</rect></_>
    <_>
      <rect>
        10 22 2 3</rect></_>
    <_>
      <rect>
        10 24 6 3</rect></_>
    <_>
      <rect>
        10 30 1 1</rect></_>
    <_>
      <rect>
        11 3 9 13</rect></_>
    <_>
      <rect>
        11 14 1 1</rect></_>
    <_>
      <rect>
        11 15 8 6</rect></_>
    <_>
      <rect>
        11 17 9 10</rect></_>
    <_>
      <rect>
        11 19 6 6</rect></_>
    <_>
      <rect>
        11 22 6 3</rect></_>
    <_>
      <rect>
        11 29 1 1</rect></_>
    <_>
      <rect>
        11 29 6 3</rect></_>
    <_>
      <rect>
        11 32 8 4</rect></_>
    <_>
      <rect>
        11 34 2 1</rect></_>
    <_>
      <rect>
        12 6 9 7</rect></_>
    <_>
      <rect>
        12 12 6 9</rect></_>
    <_>
      <rect>
        12 13 6 7</rect></_>
    <_>
      <rect>
        12 19 6 6</rect></_>
    <_>
      <rect>
        13 4 12 15</rect></_>
    <_>
      <rect>
        13 5 12 7</rect></_>
    <_>
      <rect>
        13 11 12 6</rect></_>
    <_>
      <rect>
        13 13 7 6</rect></_>
    <_>
      <rect>
        13 16 7 6</rect></_>
    <_>
      <rect>
        13 17 7 3</rect></_>
    <_>
      <rect>
        13 23 1 1</rect></_>
    <_>
      <rect>
        13 31 7 3</rect></_>
    <_>
      <rect>
        14 1 10 14</rect></_>
    <_>
      <rect>
        14 4 10 7</rect></_>
    <_>
      <rect>
        14 9 2 2</rect></_>
    <_>
      <rect>
        14 10 11 11</rect></_>
    <_>
      <rect>
        14 14 2 1</rect></_>
    <_>
      <rect>
        15 3 11 5</rect></_>
    <_>
      <rect>
        15 8 3 2</rect></_>
    <_>
      <rect>
        15 9 6 5</rect></_>
    <_>
      <rect>
        15 9 11 5</rect></_>
    <_>
      <rect>
        15 11 2 1</rect></_>
    <_>
      <rect>
        15 11 9 5</rect></_>
    <_>
      <rect>
        15 13 1 1</rect></_>
    <_>
      <rect>
        15 23 5 3</rect></_>
    <_>
      <rect>
        15 26 6 4</rect></_>
    <_>
      <rect>
        16 0 11 8</rect></_>
    <_>
      <rect>
        16 8 11 7</rect></_>
    <_>
      <rect>
        16 9 11 13</rect></_>
    <_>
      <rect>
        16 21 5 4</rect></_>
    <_>
      <rect>
        17 6 3 2</rect></_>
    <_>
      <rect>
        17 12 1 1</rect></_>
    <_>
      <rect>
        17 20 8 6</rect></_>
    <_>
      <rect>
        17 22 2 2</rect></_>
    <_>
      <rect>
        17 23 7 5</rect></_>
    <_>
      <rect>
        17 30 5 3</rect></_>
    <_>
      <rect>
        18 11 6 3</rect></_>
    <_>
      <rect>
        18 23 5 3</rect></_>
    <_>
      <rect>
        18 24 1 1</rect></_>
    <_>
      <rect>
        19 3 10 13</rect></_>
    <_>
      <rect>
        19 4 8 4</rect></_>
    <_>
      <rect>
        19 11 2 3</rect></_>
    <_>
      <rect>
        19 11 7 5</rect></_>
    <_>
      <rect>
        19 16 7 11</rect></_>
    <_>
      <rect>
        19 22 3 4</rect></_>
    <_>
      <rect>
        19 23 4 5</rect></_>
    <_>
      <rect>
        19 29 6 4</rect></_>
    <_>
      <rect>
        20 3 5 3</rect></_>
    <_>
      <rect>
        20 6 1 2</rect></_>
    <_>
      <rect>
        20 21 2 2</rect></_>
    <_>
      <rect>
        20 23 1 1</rect></_>
    <_>
      <rect>
        20 28 6 3</rect></_>
    <_>
      <rect>
        21 1 5 2</rect></_>
    <_>
      <rect>
        21 18 5 6</rect></_>
    <_>
      <rect>
        21 19 2 3</rect></_>
    <_>
      <rect>
        21 26 1 1</rect></_>
    <_>
      <rect>
        22 4 8 13</rect></_>
    <_>
      <rect>
        22 6 9 9</rect></_>
    <_>
      <rect>
        23 0 6 3</rect></_>
    <_>
      <rect>
        23 0 7 7</rect></_>
    <_>
      <rect>
        23 7 5 3</rect></_>
    <_>
      <rect>
        23 10 1 1</rect></_>
    <_>
      <rect>
        23 11 8 4</rect></_>
    <_>
      <rect>
        23 20 1 2</rect></_>
    <_>
      <rect>
        23 32 3 3</rect></_>
    <_>
      <rect>
        24 4 8 5</rect></_>
    <_>
      <rect>
        24 11 5 4</rect></_>
    <_>
      <rect>
        24 12 7 5</rect></_>
    <_>
      <rect>
        24 19 4 4</rect></_>
    <_>
      <rect>
        24 33 4 3</rect></_>
    <_>
      <rect>
        25 0 8 16</rect></_>
    <_>
      <rect>
        25 4 4 2</rect></_>
    <_>
      <rect>
        25 7 8 13</rect></_>
    <_>
      <rect>
        25 8 6 5</rect></_>
    <_>
      <rect>
        25 11 4 3</rect></_>
    <_>
      <rect>
        25 11 5 3</rect></_>
    <_>
      <rect>
        26 4 7 8</rect></_>
    <_>
      <rect>
        27 10 2 2</rect></_>
    <_>
      <rect>
        28 6 2 1</rect></_>
    <_>
      <rect>
        28 16 1 2</rect></_>
    <_>
      <rect>
        28 35 1 1</rect></_>
    <_>
      <rect>
        29 0 3 2</rect></_>
    <_>
      <rect>
        29 12 5 4</rect></_>
    <_>
      <rect>
        29 21 2 2</rect></_>
    <_>
      <rect>
        29 26 1 1</rect></_>
    <_>
      <rect>
        29 32 4 4</rect></_>
    <_>
      <rect>
        29 33 5 4</rect></_>
    <_>
      <rect>
        29 36 5 4</rect></_>
    <_>
      <rect>
        30 11 5 4</rect></_>
    <_>
      <rect>
        30 23 2 1</rect></_>
    <_>
      <rect>
        30 24 1 1</rect></_>
    <_>
      <rect>
        30 33 6 4</rect></_>
    <_>
      <rect>
        31 6 3 3</rect></_>
    <_>
      <rect>
        31 16 1 1</rect></_>
    <_>
      <rect>
        31 18 3 3</rect></_>
    <_>
      <rect>
        31 20 1 1</rect></_>
    <_>
      <rect>
        31 22 3 3</rect></_>
    <_>
      <rect>
        31 22 5 3</rect></_>
    <_>
      <rect>
        31 23 1 1</rect></_>
    <_>
      <rect>
        31 26 1 1</rect></_>
    <_>
      <rect>
        31 34 4 3</rect></_>
    <_>
      <rect>
        32 17 5 4</rect></_>
    <_>
      <rect>
        32 22 1 1</rect></_>
    <_>
      <rect>
        32 34 1 1</rect></_>
    <_>
      <rect>
        33 6 3 3</rect></_>
    <_>
      <rect>
        33 13 1 1</rect></_>
    <_>
      <rect>
        33 13 5 6</rect></_>
    <_>
      <rect>
        33 15 5 6</rect></_>
    <_>
      <rect>
        33 23 1 1</rect></_>
    <_>
      <rect>
        33 25 1 1</rect></_>
    <_>
      <rect>
        34 2 5 14</rect></_>
    <_>
      <rect>
        34 16 4 6</rect></_>
    <_>
      <rect>
        34 18 1 1</rect></_>
    <_>
      <rect>
        34 21 5 8</rect></_>
    <_>
      <rect>
        34 22 1 1</rect></_>
    <_>
      <rect>
        34 22 5 3</rect></_>
    <_>
      <rect>
        34 30 5 4</rect></_>
    <_>
      <rect>
        35 17 1 1</rect></_>
    <_>
      <rect>
        37 14 2 3</rect></_>
    <_>
      <rect>
        38 14 2 2</rect></_>
    <_>
      <rect>
        40 11 3 3</rect></_>
    <_>
      <rect>
        40 20 2 2</rect></_>
    <_>
      <rect>
        42 23 1 1</rect></_>
    <_>
      <rect>
        43 7 2 5</rect></_>
    <_>
      <rect>
        43 19 1 1</rect></_>
    <_>
      <rect>
        43 28 2 3</rect></_></features></cascade>
</opencv_storage>
