<?xml version="1.0"?>
<opencv_storage>
<cascade>
  <stageType>BOOST</stageType>
  <featureType>LBP</featureType>
  <height>49</height>
  <width>64</width>
  <stageParams>
    <boostType>GAB</boostType>
    <minHitRate>9.9900001287460327e-001</minHitRate>
    <maxFalseAlarm>5.0000000000000000e-001</maxFalseAlarm>
    <weightTrimRate>9.4999999999999996e-001</weightTrimRate>
    <maxDepth>1</maxDepth>
    <maxWeakCount>100</maxWeakCount></stageParams>
  <featureParams>
    <maxCatCount>256</maxCatCount>
    <featSize>1</featSize></featureParams>
  <stageNum>22</stageNum>
  <stages>
    <!-- stage 0 -->
    <_>
      <maxWeakCount>5</maxWeakCount>
      <stageThreshold>-1.2398897409439087e+000</stageThreshold>
      <weakClassifiers>
        <_>
          <internalNodes>
            0 -1 56 -791613232 -711876399 268484987 -577383041
            -123960597 -1180970773 -1432642629 -4195345</internalNodes>
          <leafValues>
            -8.2264959812164307e-001 4.7872340679168701e-001</leafValues></_>
        <_>
          <internalNodes>
            0 -1 63 -923816133 1527586835 -2003533309 1059398719
            168537514 -1409806274 242069423 -1077959009</internalNodes>
          <leafValues>
            -6.3529813289642334e-001 4.9711909890174866e-001</leafValues></_>
        <_>
          <internalNodes>
            0 -1 23 -599590712 383791316 775979423 -48762037 808235166
            -1205825384 -1029638401 -5</internalNodes>
          <leafValues>
            -6.5651887655258179e-001 4.3557643890380859e-001</leafValues></_>
        <_>
          <internalNodes>
            0 -1 71 -44044625 1498874131 -1978695510 1005257856
            1289455806 2127503547 1208716975 726649867</internalNodes>
          <leafValues>
            -6.0363936424255371e-001 4.4314873218536377e-001</leafValues></_>
        <_>
          <internalNodes>
            0 -1 87 -671038790 -35172268 -2147434286 1918074898
            -1304384862 -912742381 -1845353701 714813482</internalNodes>
          <leafValues>
            -6.7597866058349609e-001 4.3142810463905334e-001</leafValues></_></weakClassifiers></_>
    <!-- stage 1 -->
    <_>
      <maxWeakCount>8</maxWeakCount>
      <stageThreshold>-1.1244006156921387e+000</stageThreshold>
      <weakClassifiers>
        <_>
          <internalNodes>
            0 -1 44 -264056592 -604796976 1342199165 -714273 -73681925
            -2903893 -1719018497 -4468741</internalNodes>
          <leafValues>
            -7.8750002384185791e-001 1.8571428954601288e-001</leafValues></_>
        <_>
          <internalNodes>
            0 -1 30 722703 182583557 1929584767 -841103019 944647429
            -278363833 -1080932993 -286533157</internalNodes>
          <leafValues>
            -6.9663918018341064e-001 2.5946319103240967e-001</leafValues></_>
        <_>
          <internalNodes>
            0 -1 123 -188682614 -799160945 -2097140177 -543291817 8648
            -431417185 1804027903 -60690</internalNodes>
          <leafValues>
            -5.6588113307952881e-001 3.6316889524459839e-001</leafValues></_>
        <_>
          <internalNodes>
            0 -1 53 1367843002 2065268816 135866890 194969618 1000992556
            1525956640 52607659 699119802</internalNodes>
          <leafValues>
            -6.5572166442871094e-001 3.4951400756835938e-001</leafValues></_>
        <_>
          <internalNodes>
            0 -1 67 -196876544 1360065296 -989341300 -721321349
            -738395164 -254729713 -716658252 -402601459</internalNodes>
          <leafValues>
            -6.1169153451919556e-001 3.4115785360336304e-001</leafValues></_>
        <_>
          <internalNodes>
            0 -1 94 -1092821187 -541188867 -1073758209 -37797901
            -1073775143 -540679 2142420733 -292489840</internalNodes>
          <leafValues>
            -4.2532068490982056e-001 5.1980733871459961e-001</leafValues></_>
        <_>
          <internalNodes>
            0 -1 21 1625816695 -1035183603 -396836685 542306662
            1036397103 23803016 1943168345 -419962133</internalNodes>
          <leafValues>
            -5.4639923572540283e-001 3.9826735854148865e-001</leafValues></_>
        <_>
          <internalNodes>
            0 -1 167 -1326187020 -1497902862 -1760651100 -1087405679
            139393712 -829669702 948997328 717129777</internalNodes>
          <leafValues>
            -6.2718266248703003e-001 3.3772531151771545e-001</leafValues></_></weakClassifiers></_>
    <!-- stage 2 -->
    <_>
      <maxWeakCount>9</maxWeakCount>
      <stageThreshold>-1.5606936216354370e+000</stageThreshold>
      <weakClassifiers>
        <_>
          <internalNodes>
            0 -1 62 -171198529 -570444491 -585028293 -35802349
            -1438863937 -1946554119 -806769745 -2377553</internalNodes>
          <leafValues>
            -5.6258237361907959e-001 3.8865837454795837e-001</leafValues></_>
        <_>
          <internalNodes>
            0 -1 29 -798951264 -536806592 1355959801 -105660117
            335589630 -233733941 -791680769 -33820577</internalNodes>
          <leafValues>
            -7.2802644968032837e-001 2.2373789548873901e-001</leafValues></_>
        <_>
          <internalNodes>
            0 -1 32 2018692287 -107914956 1075939487 1058546489
            -959918897 1998119432 1074495677 2143019800</internalNodes>
          <leafValues>
            -4.5425805449485779e-001 3.9011049270629883e-001</leafValues></_>
        <_>
          <internalNodes>
            0 -1 171 681850935 77222363 -1975061666 -1430513546
            1661623089 -119306102 -1196668106 -368551340</internalNodes>
          <leafValues>
            -6.7763411998748779e-001 3.0879712104797363e-001</leafValues></_>
        <_>
          <internalNodes>
            0 -1 146 -1036464159 -1315838121 -837395301 -1432980090
            1518922574 -85208838 2060198662 -360813280</internalNodes>
          <leafValues>
            -4.9572250247001648e-001 3.6674368381500244e-001</leafValues></_>
        <_>
          <internalNodes>
            0 -1 95 -238034044 498039065 -1006603102 831064993
            1423453899 1088999656 1217398860 -124781140</internalNodes>
          <leafValues>
            -5.2029925584793091e-001 3.6293268203735352e-001</leafValues></_>
        <_>
          <internalNodes>
            0 -1 166 -11617536 -1265595520 -721030705 -996359909
            -917862137 585144367 -2007005125 793472523</internalNodes>
          <leafValues>
            -6.7038065195083618e-001 2.8771793842315674e-001</leafValues></_>
        <_>
          <internalNodes>
            0 -1 77 361452849 391731331 -801655435 -1077720755
            -1706859011 -1146160765 -357857081 798980155</internalNodes>
          <leafValues>
            -5.6551682949066162e-001 3.2573038339614868e-001</leafValues></_>
        <_>
          <internalNodes>
            0 -1 164 -354991393 707142987 -1005895461 -963874391
            -113149069 -402653151 -636794026 -621839325</internalNodes>
          <leafValues>
            -5.0297105312347412e-001 4.1672021150588989e-001</leafValues></_></weakClassifiers></_>
    <!-- stage 3 -->
    <_>
      <maxWeakCount>10</maxWeakCount>
      <stageThreshold>-1.2952910661697388e+000</stageThreshold>
      <weakClassifiers>
        <_>
          <internalNodes>
            0 -1 55 -579483425 -49032909 -1959689061 -549610069
            -2121035777 -870345701 -1069970773 -6303826</internalNodes>
          <leafValues>
            -5.5838257074356079e-001 2.8660824894905090e-001</leafValues></_>
        <_>
          <internalNodes>
            0 -1 5 -578748418 1917065432 1315852747 -280241853
            1846551426 -1502082129 2064453842 -71341105</internalNodes>
          <leafValues>
            -5.0858300924301147e-001 3.0134296417236328e-001</leafValues></_>
        <_>
          <internalNodes>
            0 -1 59 638715763 182342487 -1357579937 -1359573171
            2066181303 -1163034469 1072569129 -320810908</internalNodes>
          <leafValues>
            -5.9567749500274658e-001 2.7005493640899658e-001</leafValues></_>
        <_>
          <internalNodes>
            0 -1 137 781910563 701740294 -1274547936 -1432693751
            -1336994747 859496778 1405995284 -83892413</internalNodes>
          <leafValues>
            -6.0340160131454468e-001 2.9700487852096558e-001</leafValues></_>
        <_>
          <internalNodes>
            0 -1 140 -472972465 -1504221094 1561592537 -327339641
            -112100303 -1148550527 -74486909 -1902479171</internalNodes>
          <leafValues>
            -4.6827924251556396e-001 3.6019685864448547e-001</leafValues></_>
        <_>
          <internalNodes>
            0 -1 121 1325885314 -746281769 1704213533 2139368704
            20531338 204358077 2064657838 1328089386</internalNodes>
          <leafValues>
            -6.3664019107818604e-001 2.6566118001937866e-001</leafValues></_>
        <_>
          <internalNodes>
            0 -1 152 -454563222 -679088050 1399877792 -1320635902
            1377846309 -50206023 -519926821 -2010404649</internalNodes>
          <leafValues>
            -5.3093278408050537e-001 3.2471805810928345e-001</leafValues></_>
        <_>
          <internalNodes>
            0 -1 173 -23598064 1318219784 1103208762 344778759
            -1421631421 -397573687 680777730 952103454</internalNodes>
          <leafValues>
            -5.7206010818481445e-001 3.1807100772857666e-001</leafValues></_>
        <_>
          <internalNodes>
            0 -1 12 1082828226 -216563237 807801514 -1081981712
            1673671654 335610561 587662085 -16581046</internalNodes>
          <leafValues>
            -5.1139777898788452e-001 3.5458886623382568e-001</leafValues></_>
        <_>
          <internalNodes>
            0 -1 93 1307566722 296816834 -1716527990 -1123424758
            -888941046 -510623589 1881339010 1057613826</internalNodes>
          <leafValues>
            -5.8235883712768555e-001 3.2527622580528259e-001</leafValues></_></weakClassifiers></_>
    <!-- stage 4 -->
    <_>
      <maxWeakCount>10</maxWeakCount>
      <stageThreshold>-1.3281128406524658e+000</stageThreshold>
      <weakClassifiers>
        <_>
          <internalNodes>
            0 -1 84 1910498283 320845631 -1472010881 -1210329635
            -739513665 -1132215917 -53876002 -3160136</internalNodes>
          <leafValues>
            -5.6767094135284424e-001 2.0572057366371155e-001</leafValues></_>
        <_>
          <internalNodes>
            0 -1 38 -1273312556 -682533229 419594922 523840298
            -1047715137 -885816593 1269465224 1261358084</internalNodes>
          <leafValues>
            -5.7652544975280762e-001 2.4235869944095612e-001</leafValues></_>
        <_>
          <internalNodes>
            0 -1 103 -205127690 1414586932 -2012465392 122969397
            -350135632 -297818102 1149303033 -48891205</internalNodes>
          <leafValues>
            -4.8757156729698181e-001 3.1751731038093567e-001</leafValues></_>
        <_>
          <internalNodes>
            0 -1 50 168828469 -2107706359 1493373327 -1294536574
            -1667536410 -70552614 -388532135 -319259376</internalNodes>
          <leafValues>
            -5.6877112388610840e-001 3.1606879830360413e-001</leafValues></_>
        <_>
          <internalNodes>
            0 -1 175 505036637 -2033016360 -721396833 -1424359293
            -1146289356 -610342776 -1697728136 -1344270304</internalNodes>
          <leafValues>
            -5.9575855731964111e-001 2.7296146750450134e-001</leafValues></_>
        <_>
          <internalNodes>
            0 -1 2 -890050946 -967573414 -469678956 727172738 1158793752
            -1065188157 1405437153 -355515145</internalNodes>
          <leafValues>
            -4.7951796650886536e-001 3.4069356322288513e-001</leafValues></_>
        <_>
          <internalNodes>
            0 -1 116 -856896977 320458799 85280539 -27704062 1106529195
            1526747388 2092961787 -274969041</internalNodes>
          <leafValues>
            -4.8089268803596497e-001 3.5854727029800415e-001</leafValues></_>
        <_>
          <internalNodes>
            0 -1 82 5537207 454000013 2098321901 554893315 -654294179
            -1194567501 -322319114 681260129</internalNodes>
          <leafValues>
            -5.7305949926376343e-001 3.1029945611953735e-001</leafValues></_>
        <_>
          <internalNodes>
            0 -1 51 1155100343 -521919777 -1786425221 1251889372
            665270062 -347396373 681826336 -189630924</internalNodes>
          <leafValues>
            -5.2609509229660034e-001 3.2191711664199829e-001</leafValues></_>
        <_>
          <internalNodes>
            0 -1 24 -1056572476 -2130506591 1349087509 251863305
            -1035179894 -1009867133 588854009 462136162</internalNodes>
          <leafValues>
            -5.7910174131393433e-001 3.1238052248954773e-001</leafValues></_></weakClassifiers></_>
    <!-- stage 5 -->
    <_>
      <maxWeakCount>10</maxWeakCount>
      <stageThreshold>-1.1122444868087769e+000</stageThreshold>
      <weakClassifiers>
        <_>
          <internalNodes>
            0 -1 43 -67940131 -38152609 -679376111 -585114350
            -1050050065 -1447302926 -939946293 -339899461</internalNodes>
          <leafValues>
            -5.3047406673431396e-001 2.2292993962764740e-001</leafValues></_>
        <_>
          <internalNodes>
            0 -1 169 -149953792 212245520 1656795696 374346546 805497108
            -1987059675 -66999946 265257299</internalNodes>
          <leafValues>
            -6.3519275188446045e-001 2.0537844300270081e-001</leafValues></_>
        <_>
          <internalNodes>
            0 -1 143 186071859 173524553 1412551495 -992067570
            -205825167 -241696765 -259672559 -90704217</internalNodes>
          <leafValues>
            -5.5058127641677856e-001 2.5377792119979858e-001</leafValues></_>
        <_>
          <internalNodes>
            0 -1 131 1951417614 -262903509 -1034877942 1235068454
            1644388543 -635314002 1910591787 -87537111</internalNodes>
          <leafValues>
            -5.2985221147537231e-001 2.9756724834442139e-001</leafValues></_>
        <_>
          <internalNodes>
            0 -1 58 1364499925 -33686057 -1132937739 -1823374315
            1978655998 -1083408546 -1942193412 -1</internalNodes>
          <leafValues>
            -3.3473390340805054e-001 4.8137137293815613e-001</leafValues></_>
        <_>
          <internalNodes>
            0 -1 6 -136135062 -226309822 -258688641 1008345294
            -616341947 453779643 -611357796 2018849399</internalNodes>
          <leafValues>
            -4.8275941610336304e-001 3.3813354372978210e-001</leafValues></_>
        <_>
          <internalNodes>
            0 -1 100 -239005614 -440904761 1359565260 1405901724
            -779459868 -561901069 2005269322 30044801</internalNodes>
          <leafValues>
            -5.6775534152984619e-001 2.7849724888801575e-001</leafValues></_>
        <_>
          <internalNodes>
            0 -1 96 -36082035 962418071 -2008546152 494984616 1098926325
            195350962 1115932846 -1462780178</internalNodes>
          <leafValues>
            -4.7631123661994934e-001 3.4758982062339783e-001</leafValues></_>
        <_>
          <internalNodes>
            0 -1 85 216933681 -1363774566 -876503979 -106220851
            151213713 -92092269 -630472259 -808785260</internalNodes>
          <leafValues>
            -5.2246445417404175e-001 3.1472799181938171e-001</leafValues></_>
        <_>
          <internalNodes>
            0 -1 34 883884626 521496912 -1994031099 -1983937528
            -763251526 -70260553 -1476145493 1932172804</internalNodes>
          <leafValues>
            -5.2397888898849487e-001 3.1241905689239502e-001</leafValues></_></weakClassifiers></_>
    <!-- stage 6 -->
    <_>
      <maxWeakCount>9</maxWeakCount>
      <stageThreshold>-1.1236908435821533e+000</stageThreshold>
      <weakClassifiers>
        <_>
          <internalNodes>
            0 -1 157 -1420605633 -1561348195 -649608965 -1440838759
            2062186807 -618446717 -125019641 -355021999</internalNodes>
          <leafValues>
            -7.1158045530319214e-001 -1.4136447571218014e-002</leafValues></_>
        <_>
          <internalNodes>
            0 -1 90 646589297 -1428772844 -1996303401 799494477
            293616403 -1148223321 948076373 -1375976879</internalNodes>
          <leafValues>
            -6.7964148521423340e-001 1.7731210589408875e-001</leafValues></_>
        <_>
          <internalNodes>
            0 -1 160 -168133635 1963446677 -548742534 -1079012968
            -300453379 -112205125 266042701 -1661451148</internalNodes>
          <leafValues>
            -4.5993414521217346e-001 3.0400872230529785e-001</leafValues></_>
        <_>
          <internalNodes>
            0 -1 109 -724045598 319414562 1672220685 1361789067
            1929500682 -629104112 -438131559 -175521051</internalNodes>
          <leafValues>
            -3.8243380188941956e-001 3.9066562056541443e-001</leafValues></_>
        <_>
          <internalNodes>
            0 -1 177 587074869 -1811525225 -1022766381 -1085891375
            -675067801 -1154969797 -1597895609 -1163253244</internalNodes>
          <leafValues>
            -5.9539526700973511e-001 2.6734584569931030e-001</leafValues></_>
        <_>
          <internalNodes>
            0 -1 122 -789193302 1808855774 1147208207 -546701302
            1078989416 685241029 1278091791 1296760906</internalNodes>
          <leafValues>
            -5.5596792697906494e-001 2.7911841869354248e-001</leafValues></_>
        <_>
          <internalNodes>
            0 -1 176 1017642356 83687427 -2130560432 338137490
            -1701524844 -976590718 2088937624 147444520</internalNodes>
          <leafValues>
            -5.8377754688262939e-001 2.6047468185424805e-001</leafValues></_>
        <_>
          <internalNodes>
            0 -1 150 -1899616481 -1898511725 -1186916067 -1537312571
            1536392019 548014208 -91770233 -623183421</internalNodes>
          <leafValues>
            -5.5588525533676147e-001 2.6095178723335266e-001</leafValues></_>
        <_>
          <internalNodes>
            0 -1 104 -1441391428 1086326292 -729429541 856112549
            17859216 537395216 8515807 205693200</internalNodes>
          <leafValues>
            -5.7512623071670532e-001 3.0828976631164551e-001</leafValues></_></weakClassifiers></_>
    <!-- stage 7 -->
    <_>
      <maxWeakCount>10</maxWeakCount>
      <stageThreshold>-1.1888432502746582e+000</stageThreshold>
      <weakClassifiers>
        <_>
          <internalNodes>
            0 -1 163 -489723009 -1430355873 1091859931 -320935719
            -206996674 -341082104 -559288713 -289489761</internalNodes>
          <leafValues>
            -6.3188076019287109e-001 8.1210188567638397e-002</leafValues></_>
        <_>
          <internalNodes>
            0 -1 134 714306871 -1503731459 1546730485 -426358698
            411269989 -341114806 -1471989676 -285253263</internalNodes>
          <leafValues>
            -6.0483109951019287e-001 2.3798894882202148e-001</leafValues></_>
        <_>
          <internalNodes>
            0 -1 89 514468149 -1227827950 1104531955 721834103 713058917
            -57155336 -662407811 -1359972940</internalNodes>
          <leafValues>
            -6.0072875022888184e-001 2.4731245636940002e-001</leafValues></_>
        <_>
          <internalNodes>
            0 -1 81 -101581574 -979154827 545452037 -267317043
            1268375363 2145038984 785965803 -1095118417</internalNodes>
          <leafValues>
            -4.0147998929023743e-001 3.9851447939872742e-001</leafValues></_>
        <_>
          <internalNodes>
            0 -1 78 1364063489 562518405 -1030085501 -975531586
            277013647 184338560 -1828077493 -271921142</internalNodes>
          <leafValues>
            -4.6671783924102783e-001 3.6116051673889160e-001</leafValues></_>
        <_>
          <internalNodes>
            0 -1 47 788686783 1756811493 -1055026857 -288353175
            545393211 -133976053 -1446258123 -287901211</internalNodes>
          <leafValues>
            -4.9776038527488708e-001 3.5085430741310120e-001</leafValues></_>
        <_>
          <internalNodes>
            0 -1 31 531774878 969681096 676387319 397689077 906562493
            -68566846 1073746024 1974512073</internalNodes>
          <leafValues>
            -5.5778521299362183e-001 2.9843211174011230e-001</leafValues></_>
        <_>
          <internalNodes>
            0 -1 72 -110014220 -44204002 436490504 1981831306 1233199305
            1236389995 -380249046 744981418</internalNodes>
          <leafValues>
            -4.9276325106620789e-001 3.6575803160667419e-001</leafValues></_>
        <_>
          <internalNodes>
            0 -1 172 778068273 449983963 -1342120517 1854160961
            -796307091 -1434287223 1267444448 -1672467858</internalNodes>
          <leafValues>
            -5.7128155231475830e-001 2.8412237763404846e-001</leafValues></_>
        <_>
          <internalNodes>
            0 -1 16 -825300201 1096217860 -2134628383 -721337724
            1632174341 -2101112664 1401104555 -275813803</internalNodes>
          <leafValues>
            -4.2296499013900757e-001 4.2165586352348328e-001</leafValues></_></weakClassifiers></_>
    <!-- stage 8 -->
    <_>
      <maxWeakCount>12</maxWeakCount>
      <stageThreshold>-1.3946404457092285e+000</stageThreshold>
      <weakClassifiers>
        <_>
          <internalNodes>
            0 -1 39 -637583361 -228732519 1476549629 90526144
            -1817118319 -1425292919 1055645 -67507201</internalNodes>
          <leafValues>
            -5.6027668714523315e-001 1.3729508221149445e-001</leafValues></_>
        <_>
          <internalNodes>
            0 -1 162 251621239 777028030 -2012605193 -1363771111
            -477163393 -385712037 -1364564188 -636819927</internalNodes>
          <leafValues>
            -5.7223922014236450e-001 2.3017072677612305e-001</leafValues></_>
        <_>
          <internalNodes>
            0 -1 108 2147345573 840233554 -2134514964 823969048
            1346390114 -1131364200 -1740045641 -1170736394</internalNodes>
          <leafValues>
            -4.2315733432769775e-001 3.3121985197067261e-001</leafValues></_>
        <_>
          <internalNodes>
            0 -1 155 -1635514508 -1695303743 1275154911 -180385385
            589310664 -73891698 1003047273 667161124</internalNodes>
          <leafValues>
            -5.5745375156402588e-001 3.0482181906700134e-001</leafValues></_>
        <_>
          <internalNodes>
            0 -1 3 -118563614 -20545476 -2008102557 -336816106 313606716
            362479707 -2010964979 1940653715</internalNodes>
          <leafValues>
            -6.0313522815704346e-001 2.3570507764816284e-001</leafValues></_>
        <_>
          <internalNodes>
            0 -1 142 -86784017 -17498196 -513540685 1928820286
            2013226233 -143298699 -176718337 -42748429</internalNodes>
          <leafValues>
            -3.1290969252586365e-001 5.0686365365982056e-001</leafValues></_>
        <_>
          <internalNodes>
            0 -1 52 422532241 48177299 361804945 386730965 420560064
            -1417508733 -368288191 962033123</internalNodes>
          <leafValues>
            -6.1210507154464722e-001 2.7803137898445129e-001</leafValues></_>
        <_>
          <internalNodes>
            0 -1 92 -1220477782 1201963174 -980693293 -2118024184
            1610773218 1669875848 1090964611 -427824910</internalNodes>
          <leafValues>
            -5.2271443605422974e-001 3.0193588137626648e-001</leafValues></_>
        <_>
          <internalNodes>
            0 -1 182 -1806805063 -1730637426 344001229 -1664624491
            -1719508039 -342228856 -1516069157 -1159562508</internalNodes>
          <leafValues>
            -4.0168073773384094e-001 3.9914381504058838e-001</leafValues></_>
        <_>
          <internalNodes>
            0 -1 45 764950774 537133395 -645295233 1250734098 772032784
            -1549631360 -1425399743 -846573451</internalNodes>
          <leafValues>
            -6.3805669546127319e-001 2.5470313429832458e-001</leafValues></_>
        <_>
          <internalNodes>
            0 -1 80 -2036313632 -82018288 1948487005 -721403691
            -225533463 -80584564 -1199382193 -1710426112</internalNodes>
          <leafValues>
            -4.7261053323745728e-001 3.5004416108131409e-001</leafValues></_>
        <_>
          <internalNodes>
            0 -1 185 523743505 140550161 1217921659 407908547 1434705188
            -905275391 1493616884 645970790</internalNodes>
          <leafValues>
            -5.4915523529052734e-001 3.1608855724334717e-001</leafValues></_></weakClassifiers></_>
    <!-- stage 9 -->
    <_>
      <maxWeakCount>11</maxWeakCount>
      <stageThreshold>-1.7278249263763428e+000</stageThreshold>
      <weakClassifiers>
        <_>
          <internalNodes>
            0 -1 107 -1869220657 -549017627 1092212985 -1999654651
            1990095791 -1285347709 -99022321 -118496057</internalNodes>
          <leafValues>
            -5.5835348367691040e-001 1.6363635659217834e-001</leafValues></_>
        <_>
          <internalNodes>
            0 -1 170 148299511 668733973 -1839951411 898908442
            -1718875446 -237844342 -1643940940 -1347927740</internalNodes>
          <leafValues>
            -4.7746253013610840e-001 2.5813758373260498e-001</leafValues></_>
        <_>
          <internalNodes>
            0 -1 41 -1450768617 769524391 -2008837735 -1471531970
            -2012315899 -1339402073 -1416418555 -296171020</internalNodes>
          <leafValues>
            -5.3343141078948975e-001 2.4565717577934265e-001</leafValues></_>
        <_>
          <internalNodes>
            0 -1 144 -938478938 1093986703 -819936250 -1006614141
            1074479685 1079943177 1462589479 1393025059</internalNodes>
          <leafValues>
            -5.6944298744201660e-001 2.6974448561668396e-001</leafValues></_>
        <_>
          <internalNodes>
            0 -1 153 685002036 -2098720364 -720254632 1029181833
            268446140 -1374355053 690037755 229589291</internalNodes>
          <leafValues>
            -4.5743438601493835e-001 3.1805664300918579e-001</leafValues></_>
        <_>
          <internalNodes>
            0 -1 61 -806429356 -1602178852 1129092421 604734172
            -1473281886 -477527125 1336443761 -1948266177</internalNodes>
          <leafValues>
            -5.5687510967254639e-001 2.6678690314292908e-001</leafValues></_>
        <_>
          <internalNodes>
            0 -1 70 -121054640 1050465508 469845705 763533190
            -1828567102 864551049 -334771124 672461193</internalNodes>
          <leafValues>
            -5.5210256576538086e-001 2.7166864275932312e-001</leafValues></_>
        <_>
          <internalNodes>
            0 -1 186 -1698966735 -2045706056 -1207746540 -1474785149
            -775043056 -1459076662 -754969599 175010435</internalNodes>
          <leafValues>
            -5.2461373805999756e-001 2.7999711036682129e-001</leafValues></_>
        <_>
          <internalNodes>
            0 -1 132 2139612687 184739230 -1038827244 -1530418874
            -534182839 -485703543 -1438191486 -1437686517</internalNodes>
          <leafValues>
            -4.7480410337448120e-001 3.3707398176193237e-001</leafValues></_>
        <_>
          <internalNodes>
            0 -1 120 180892500 -1675800358 25801012 1800000390
            -1293416002 579117090 974023360 821228308</internalNodes>
          <leafValues>
            -6.2064832448959351e-001 2.4858225882053375e-001</leafValues></_>
        <_>
          <internalNodes>
            0 -1 40 1279518340 588374040 1346160570 -272563882
            -1119766085 -1564360542 1895924012 -738081842</internalNodes>
          <leafValues>
            -5.0301945209503174e-001 3.2941493391990662e-001</leafValues></_></weakClassifiers></_>
    <!-- stage 10 -->
    <_>
      <maxWeakCount>10</maxWeakCount>
      <stageThreshold>-1.6743260622024536e+000</stageThreshold>
      <weakClassifiers>
        <_>
          <internalNodes>
            0 -1 10 1640688127 -1289699024 1073863933 -1618504396
            -74720609 -40234973 468643839 -78126381</internalNodes>
          <leafValues>
            -5.0859105587005615e-001 2.7380952239036560e-001</leafValues></_>
        <_>
          <internalNodes>
            0 -1 149 77541905 -1529130214 1931498611 -291532708
            -133617101 -1953914750 134685538 -31458479</internalNodes>
          <leafValues>
            -5.6111162900924683e-001 2.1797429025173187e-001</leafValues></_>
        <_>
          <internalNodes>
            0 -1 28 713797247 -434235897 -715144745 1791399768
            1791694095 -276072310 -1157493801 -50595527</internalNodes>
          <leafValues>
            -3.9751371741294861e-001 3.4813210368156433e-001</leafValues></_>
        <_>
          <internalNodes>
            0 -1 136 1350429356 -1618091601 -1476368123 -1113999098
            1348226047 -1744303783 -2122096594 1609460398</internalNodes>
          <leafValues>
            -4.4465160369873047e-001 3.1818604469299316e-001</leafValues></_>
        <_>
          <internalNodes>
            0 -1 49 -15408121 928060433 1275167993 1394184594 84181940
            1894821968 22250520 2125365400</internalNodes>
          <leafValues>
            -4.7890365123748779e-001 3.1969979405403137e-001</leafValues></_>
        <_>
          <internalNodes>
            0 -1 26 -66351880 -423157516 -368875871 29913225 -710702945
            -541554687 -2113184563 -1423519633</internalNodes>
          <leafValues>
            -4.3339627981185913e-001 3.5942453145980835e-001</leafValues></_>
        <_>
          <internalNodes>
            0 -1 183 83242260 -1807081457 8931619 231795287 -523273500
            -1198905216 -1014859635 -1365886864</internalNodes>
          <leafValues>
            -7.1898096799850464e-001 2.0429743826389313e-001</leafValues></_>
        <_>
          <internalNodes>
            0 -1 64 1633014402 -788399998 -1312586740 -8023972 170627991
            708084749 -2010933094 89418267</internalNodes>
          <leafValues>
            -5.0266158580780029e-001 2.9678517580032349e-001</leafValues></_>
        <_>
          <internalNodes>
            0 -1 25 -1398255427 -1178332795 42009867 -1514925961
            -1590748397 666484840 606771891 1783454265</internalNodes>
          <leafValues>
            -4.6791997551918030e-001 3.3387756347656250e-001</leafValues></_>
        <_>
          <internalNodes>
            0 -1 18 -231060997 -129841522 67376421 -1801438710 88544813
            -1287446464 -934133381 1999067559</internalNodes>
          <leafValues>
            -4.6935552358627319e-001 3.3843660354614258e-001</leafValues></_></weakClassifiers></_>
    <!-- stage 11 -->
    <_>
      <maxWeakCount>10</maxWeakCount>
      <stageThreshold>-1.2483925819396973e+000</stageThreshold>
      <weakClassifiers>
        <_>
          <internalNodes>
            0 -1 37 -1275997804 -186936679 1226853599 530546850
            -526523717 -349798366 1133298925 -1154576467</internalNodes>
          <leafValues>
            -5.8417850732803345e-001 1.4785991609096527e-001</leafValues></_>
        <_>
          <internalNodes>
            0 -1 119 313414836 -111996464 -2113529705 1421661532
            1645788659 -1168979763 707662171 -1105416875</internalNodes>
          <leafValues>
            -4.7521945834159851e-001 2.8521198034286499e-001</leafValues></_>
        <_>
          <internalNodes>
            0 -1 148 -374878681 76460659 -902896189 -934115369
            1393586531 153264398 -1389166046 -213929108</internalNodes>
          <leafValues>
            -4.5803275704383850e-001 3.3527454733848572e-001</leafValues></_>
        <_>
          <internalNodes>
            0 -1 101 -697246478 -1736261508 -1269300048 1330691337
            -501213237 -825523891 1697167763 2097917870</internalNodes>
          <leafValues>
            -5.5550676584243774e-001 2.6272636651992798e-001</leafValues></_>
        <_>
          <internalNodes>
            0 -1 8 1214428676 -2096775015 525295893 -1059597094
            866554642 1512147728 -104742400 1859061182</internalNodes>
          <leafValues>
            -5.1481264829635620e-001 3.0988878011703491e-001</leafValues></_>
        <_>
          <internalNodes>
            0 -1 57 2106157009 357691616 -2147364589 -1992212463
            1921604062 -1165480431 -401999138 210717800</internalNodes>
          <leafValues>
            -4.6113505959510803e-001 2.9723486304283142e-001</leafValues></_>
        <_>
          <internalNodes>
            0 -1 9 -2147054854 -246024045 151011465 -550680635
            -2012566045 1669927048 2026161330 2002240008</internalNodes>
          <leafValues>
            -4.8204404115676880e-001 3.1410354375839233e-001</leafValues></_>
        <_>
          <internalNodes>
            0 -1 66 713167153 649255502 -1810771179 -2041519911
            -1204141880 -40763095 -2142018623 -1897244608</internalNodes>
          <leafValues>
            -6.0399377346038818e-001 2.6235964894294739e-001</leafValues></_>
        <_>
          <internalNodes>
            0 -1 130 876803328 471023905 587330047 121225611 353698837
            -1820121948 138551023 208818793</internalNodes>
          <leafValues>
            -5.3076374530792236e-001 2.9404047131538391e-001</leafValues></_>
        <_>
          <internalNodes>
            0 -1 125 2098447239 51171492 273979536 877258113 -1169930184
            427827232 1476417544 -1282706776</internalNodes>
          <leafValues>
            -4.8080217838287354e-001 3.5246649384498596e-001</leafValues></_></weakClassifiers></_>
    <!-- stage 12 -->
    <_>
      <maxWeakCount>7</maxWeakCount>
      <stageThreshold>-1.2490041255950928e+000</stageThreshold>
      <weakClassifiers>
        <_>
          <internalNodes>
            0 -1 4 -930962526 -296116124 1360408597 -246595067
            -1064976289 -401994736 -1045793577 -775878541</internalNodes>
          <leafValues>
            -6.4331895112991333e-001 1.6958041489124298e-001</leafValues></_>
        <_>
          <internalNodes>
            0 -1 14 -535068169 -756938641 84775039 1018729562 1095073918
            539299931 -628469254 1471603194</internalNodes>
          <leafValues>
            -4.6538907289505005e-001 3.6273959279060364e-001</leafValues></_>
        <_>
          <internalNodes>
            0 -1 145 -1315787532 -1517007483 273809823 84397016
            -229971121 -1222934399 809582679 -1368768939</internalNodes>
          <leafValues>
            -4.8738393187522888e-001 3.4890472888946533e-001</leafValues></_>
        <_>
          <internalNodes>
            0 -1 126 1215152932 1094763302 -1275014860 1615204430
            -794191872 1075085570 1090241700 1728177695</internalNodes>
          <leafValues>
            -6.7527490854263306e-001 2.2870652377605438e-001</leafValues></_>
        <_>
          <internalNodes>
            0 -1 83 1368518858 896945303 1627619602 -1887010220
            297293066 -1666512822 -2037330726 -1615767236</internalNodes>
          <leafValues>
            -4.6719890832901001e-001 3.5424813628196716e-001</leafValues></_>
        <_>
          <internalNodes>
            0 -1 36 81145847 -1597324974 -767334945 718181790
            -1475770043 -1300004718 1788435141 -1110090768</internalNodes>
          <leafValues>
            -4.9861013889312744e-001 3.2307064533233643e-001</leafValues></_>
        <_>
          <internalNodes>
            0 -1 127 -448289598 -873463019 352724124 -269448362
            1344389581 807567873 711284878 -47765438</internalNodes>
          <leafValues>
            -4.7505360841751099e-001 3.4504392743110657e-001</leafValues></_></weakClassifiers></_>
    <!-- stage 13 -->
    <_>
      <maxWeakCount>10</maxWeakCount>
      <stageThreshold>-1.2328284978866577e+000</stageThreshold>
      <weakClassifiers>
        <_>
          <internalNodes>
            0 -1 113 -214675737 1058378509 1963385487 143514272
            -232390005 -1103787664 -94335729 -1127554221</internalNodes>
          <leafValues>
            -6.1485409736633301e-001 1.4260089397430420e-001</leafValues></_>
        <_>
          <internalNodes>
            0 -1 138 77857872 -1207287627 554279189 1000276437
            2013811622 -1416101822 849812213 911774244</internalNodes>
          <leafValues>
            -5.9100276231765747e-001 2.0858782529830933e-001</leafValues></_>
        <_>
          <internalNodes>
            0 -1 159 -1845577545 475947089 -251640064 -2077161042
            -1212435204 -1649390404 -1343940448 -572526808</internalNodes>
          <leafValues>
            -3.8681656122207642e-001 3.8210865855216980e-001</leafValues></_>
        <_>
          <internalNodes>
            0 -1 180 1927238917 -186646803 -25166875 -1532371096
            -562061463 2133589759 -184685028 -266868037</internalNodes>
          <leafValues>
            -3.0172982811927795e-001 4.7732684016227722e-001</leafValues></_>
        <_>
          <internalNodes>
            0 -1 74 -724308022 494032273 -334116651 226608152 1478558088
            394416128 167873740 203226274</internalNodes>
          <leafValues>
            -6.0063642263412476e-001 2.2473722696304321e-001</leafValues></_>
        <_>
          <internalNodes>
            0 -1 106 1411208248 1379942793 1291863321 1812341129
            1761936547 1170851908 1959066892 702797994</internalNodes>
          <leafValues>
            -4.7291159629821777e-001 3.1736478209495544e-001</leafValues></_>
        <_>
          <internalNodes>
            0 -1 7 -854310210 -613149547 -2046817126 815959136
            -637005533 -760643576 -1718974016 1971483839</internalNodes>
          <leafValues>
            -5.5572903156280518e-001 2.8299626708030701e-001</leafValues></_>
        <_>
          <internalNodes>
            0 -1 68 -1296807522 -1281937226 1427361991 1940307974
            688927714 -1305443344 1468186752 1092404960</internalNodes>
          <leafValues>
            -5.6180906295776367e-001 2.8223153948783875e-001</leafValues></_>
        <_>
          <internalNodes>
            0 -1 154 -1998565488 -1593520034 1091197379 -1659561876
            -1724878347 -1215756144 -1165882739 1250632744</internalNodes>
          <leafValues>
            -5.0476068258285522e-001 3.1290608644485474e-001</leafValues></_>
        <_>
          <internalNodes>
            0 -1 88 -264505984 338707139 285656287 1638947266 167891090
            -859700983 -2084470624 1149247808</internalNodes>
          <leafValues>
            -5.8633124828338623e-001 2.6401299238204956e-001</leafValues></_></weakClassifiers></_>
    <!-- stage 14 -->
    <_>
      <maxWeakCount>11</maxWeakCount>
      <stageThreshold>-1.2354962825775146e+000</stageThreshold>
      <weakClassifiers>
        <_>
          <internalNodes>
            0 -1 35 -923040741 -1017287663 1293986227 -51080935
            -930042455 -879111119 -1054856758 -134616866</internalNodes>
          <leafValues>
            -5.8879441022872925e-001 1.7682318389415741e-001</leafValues></_>
        <_>
          <internalNodes>
            0 -1 133 1449650406 -708567868 -1849532076 -445279784
            1074366537 1077446656 1904842894 1476897482</internalNodes>
          <leafValues>
            -5.1987212896347046e-001 2.7642312645912170e-001</leafValues></_>
        <_>
          <internalNodes>
            0 -1 156 -91595163 -392998439 -1853636207 -2140385024
            1871936310 -795164530 1242044007 -324214528</internalNodes>
          <leafValues>
            -4.4488087296485901e-001 3.1971114873886108e-001</leafValues></_>
        <_>
          <internalNodes>
            0 -1 114 431672541 -1129718335 1610846349 1221448141
            -217963898 -1467152384 -1307835630 985101090</internalNodes>
          <leafValues>
            -3.9224520325660706e-001 3.6774682998657227e-001</leafValues></_>
        <_>
          <internalNodes>
            0 -1 22 -62865334 -50017906 -1064906725 -280143661
            -2063015815 -566549240 169877732 1654976825</internalNodes>
          <leafValues>
            -4.0672430396080017e-001 3.5136494040489197e-001</leafValues></_>
        <_>
          <internalNodes>
            0 -1 151 -521827158 1618463365 1384219078 -1835782036
            1887519424 -79674783 -1584619027 -1624929947</internalNodes>
          <leafValues>
            -4.9583163857460022e-001 2.8364285826683044e-001</leafValues></_>
        <_>
          <internalNodes>
            0 -1 179 1980744588 348134209 -805008707 10748834 1828954473
            -297647998 -1043691445 729020007</internalNodes>
          <leafValues>
            -5.0195699930191040e-001 2.8542658686637878e-001</leafValues></_>
        <_>
          <internalNodes>
            0 -1 98 465526225 676709509 -2063510593 -2032942463
            1520383461 -41907325 780234991 -1613260525</internalNodes>
          <leafValues>
            -4.7724950313568115e-001 3.2800534367561340e-001</leafValues></_>
        <_>
          <internalNodes>
            0 -1 129 56391542 402669952 -988442477 321786113 -632747130
            -1911750394 -804834931 676020540</internalNodes>
          <leafValues>
            -4.6629732847213745e-001 3.2648712396621704e-001</leafValues></_>
        <_>
          <internalNodes>
            0 -1 184 348378369 633623023 557934886 2034749699 -895272701
            -905789037 899423526 -855970050</internalNodes>
          <leafValues>
            -4.1217622160911560e-001 4.0075811743736267e-001</leafValues></_>
        <_>
          <internalNodes>
            0 -1 69 1666819505 1523462213 553985053 -1511422672 70757539
            -1811877804 1109169211 -169506754</internalNodes>
          <leafValues>
            -4.0249586105346680e-001 3.7508317828178406e-001</leafValues></_></weakClassifiers></_>
    <!-- stage 15 -->
    <_>
      <maxWeakCount>9</maxWeakCount>
      <stageThreshold>-9.5850485563278198e-001</stageThreshold>
      <weakClassifiers>
        <_>
          <internalNodes>
            0 -1 181 -799571932 1439925019 240452579 -1330354429
            1635363818 -1618755446 193979944 -392250841</internalNodes>
          <leafValues>
            -6.1307054758071899e-001 1.6977612674236298e-001</leafValues></_>
        <_>
          <internalNodes>
            0 -1 97 832446839 496521293 285213081 1069072537 -1165991007
            -628621157 -1165653271 -555854676</internalNodes>
          <leafValues>
            -4.5455768704414368e-001 3.6170259118080139e-001</leafValues></_>
        <_>
          <internalNodes>
            0 -1 60 1975053482 1967210513 1713993890 -1852108588
            -921656063 1342046996 -1324684021 1551860616</internalNodes>
          <leafValues>
            -5.2167344093322754e-001 2.9632133245468140e-001</leafValues></_>
        <_>
          <internalNodes>
            0 -1 112 -33728777 1018125936 -16777495 16318444 -1078667523
            -42549323 360328774 -86589718</internalNodes>
          <leafValues>
            -3.6952096223831177e-001 4.2013230919837952e-001</leafValues></_>
        <_>
          <internalNodes>
            0 -1 161 1383768822 -521639945 -419762383 -252511374
            -59096252 -9081251 -302522369 -143426129</internalNodes>
          <leafValues>
            -3.7147882580757141e-001 4.2708230018615723e-001</leafValues></_>
        <_>
          <internalNodes>
            0 -1 17 1791383151 1678387250 537982103 1345872385
            -1006632932 1083711516 1455622964 2006432544</internalNodes>
          <leafValues>
            -5.5073529481887817e-001 2.6624372601509094e-001</leafValues></_>
        <_>
          <internalNodes>
            0 -1 27 -1835372922 -229982068 1610686811 -108395428
            170197593 -533823485 -246539221 1394348356</internalNodes>
          <leafValues>
            -5.2425974607467651e-001 2.9837763309478760e-001</leafValues></_>
        <_>
          <internalNodes>
            0 -1 105 1498694864 -1325035299 1686421652 -2127257464
            1614147651 -133910432 -1199044015 1504637451</internalNodes>
          <leafValues>
            -4.5548644661903381e-001 3.6684295535087585e-001</leafValues></_>
        <_>
          <internalNodes>
            0 -1 99 -285581612 -1816331036 -1291894987 963985279
            305655547 -536870985 1048500478 -74115167</internalNodes>
          <leafValues>
            -3.0953028798103333e-001 5.6207120418548584e-001</leafValues></_></weakClassifiers></_>
    <!-- stage 16 -->
    <_>
      <maxWeakCount>9</maxWeakCount>
      <stageThreshold>-1.4306575059890747e+000</stageThreshold>
      <weakClassifiers>
        <_>
          <internalNodes>
            0 -1 76 1682587200 966744337 1409893337 897978435
            -1576895175 437956998 -1129317956 144263265</internalNodes>
          <leafValues>
            -7.6035505533218384e-001 1.6990290954709053e-002</leafValues></_>
        <_>
          <internalNodes>
            0 -1 178 13484500 -1421675887 -2095005608 -1727849264
            -1022244883 -1769094596 11213680 8417768</internalNodes>
          <leafValues>
            -6.6088390350341797e-001 2.1498948335647583e-001</leafValues></_>
        <_>
          <internalNodes>
            0 -1 147 -1739050657 -1467699049 1493172241 751595913
            -1203101163 -94175103 -234212554 -1535104684</internalNodes>
          <leafValues>
            -6.1745858192443848e-001 2.2304679453372955e-001</leafValues></_>
        <_>
          <internalNodes>
            0 -1 128 -1517292768 -1943223869 -1073049329 -1538208300
            -1342162431 -987608960 486735877 -843071311</internalNodes>
          <leafValues>
            -5.3576803207397461e-001 2.7620768547058105e-001</leafValues></_>
        <_>
          <internalNodes>
            0 -1 139 1943973603 495047049 1103122540 52025098 1481335915
            -780082808 -1476066485 -38275574</internalNodes>
          <leafValues>
            -3.8134402036666870e-001 4.0368422865867615e-001</leafValues></_>
        <_>
          <internalNodes>
            0 -1 20 1360889 -2134719438 1222175999 -310976046 1767473375
            -518995838 1359331546 310465248</internalNodes>
          <leafValues>
            -4.2602863907814026e-001 3.9419543743133545e-001</leafValues></_>
        <_>
          <internalNodes>
            0 -1 11 -1671597313 1906860658 1047813816 -177416339
            2100952730 -1224771845 1437627121 -276824193</internalNodes>
          <leafValues>
            -2.9285034537315369e-001 5.1532536745071411e-001</leafValues></_>
        <_>
          <internalNodes>
            0 -1 46 539076994 360826023 -238808756 -1694408703
            -1336542555 -369048446 -2144701016 -171589622</internalNodes>
          <leafValues>
            -5.1552158594131470e-001 3.0471920967102051e-001</leafValues></_>
        <_>
          <internalNodes>
            0 -1 86 -2058905481 297808278 407421326 226689231
            -1459486560 -1103853312 -905361333 67489305</internalNodes>
          <leafValues>
            -4.5816817879676819e-001 3.3978202939033508e-001</leafValues></_></weakClassifiers></_>
    <!-- stage 17 -->
    <_>
      <maxWeakCount>6</maxWeakCount>
      <stageThreshold>-1.5181510448455811e+000</stageThreshold>
      <weakClassifiers>
        <_>
          <internalNodes>
            0 -1 73 1089733202 80362820 755123521 -943716257 1621390994
            -1426955872 -1811339029 -737644264</internalNodes>
          <leafValues>
            -7.8474783897399902e-001 2.0087336003780365e-001</leafValues></_>
        <_>
          <internalNodes>
            0 -1 165 -599522987 353726622 -1958010275 -925818859
            -1070423579 -1580625007 -133476731 340328161</internalNodes>
          <leafValues>
            -5.6545186042785645e-001 3.6662513017654419e-001</leafValues></_>
        <_>
          <internalNodes>
            0 -1 91 -489425626 -1868482109 -1283220975 -264240985 423
            1216905774 -1308499174 -710975475</internalNodes>
          <leafValues>
            -4.8414716124534607e-001 3.8675731420516968e-001</leafValues></_>
        <_>
          <internalNodes>
            0 -1 135 -589796302 233132297 -461352648 9621761 1210339398
            -1811869695 -989699549 -1174047822</internalNodes>
          <leafValues>
            -5.0402343273162842e-001 3.5833802819252014e-001</leafValues></_>
        <_>
          <internalNodes>
            0 -1 158 -1635972170 -1661059105 -16814431 -36045125
            -655556624 -1644773391 -549602744 -1608259269</internalNodes>
          <leafValues>
            -3.8254410028457642e-001 4.5547661185264587e-001</leafValues></_>
        <_>
          <internalNodes>
            0 -1 75 -1541525379 -1008316272 -1786751345 -1680027447
            -804650759 -612302718 949559355 -1360265168</internalNodes>
          <leafValues>
            -5.1551651954650879e-001 3.4040197730064392e-001</leafValues></_></weakClassifiers></_>
    <!-- stage 18 -->
    <_>
      <maxWeakCount>7</maxWeakCount>
      <stageThreshold>-1.6318374872207642e+000</stageThreshold>
      <weakClassifiers>
        <_>
          <internalNodes>
            0 -1 102 1970753920 1475702872 67174537 1975845904 105213188
            348651772 17014986 475947656</internalNodes>
          <leafValues>
            -7.2675085067749023e-001 2.1144674718379974e-001</leafValues></_>
        <_>
          <internalNodes>
            0 -1 54 1192797721 1314936164 -1660908387 -1462697627
            1497890975 1358985016 -1723781111 1776023705</internalNodes>
          <leafValues>
            -4.9477815628051758e-001 3.8966134190559387e-001</leafValues></_>
        <_>
          <internalNodes>
            0 -1 110 1426546954 688074770 -804764710 -1402289311
            1216945024 -1752989536 2017832682 -1433566945</internalNodes>
          <leafValues>
            -4.8511397838592529e-001 3.6833342909812927e-001</leafValues></_>
        <_>
          <internalNodes>
            0 -1 13 2094136215 -710234012 -282165445 -606931843
            2142797310 2096527221 410808368 -1694498849</internalNodes>
          <leafValues>
            -3.2484170794487000e-001 5.5387628078460693e-001</leafValues></_>
        <_>
          <internalNodes>
            0 -1 79 -2111809901 -1615184360 -286458255 -571113603
            1686015690 -1076891650 1656548331 -1969445378</internalNodes>
          <leafValues>
            -2.9074925184249878e-001 5.9731036424636841e-001</leafValues></_>
        <_>
          <internalNodes>
            0 -1 187 640164637 -222641542 1610678279 -2020273903
            839541226 -265715704 -2076040620 -1433752932</internalNodes>
          <leafValues>
            -3.9367705583572388e-001 4.4113925099372864e-001</leafValues></_>
        <_>
          <internalNodes>
            0 -1 124 1083197128 880889992 -1919893480 751073858
            1342334312 -653209589 1906477966 735012562</internalNodes>
          <leafValues>
            -6.5381330251693726e-001 2.6181295514106750e-001</leafValues></_></weakClassifiers></_>
    <!-- stage 19 -->
    <_>
      <maxWeakCount>7</maxWeakCount>
      <stageThreshold>-1.1933572292327881e+000</stageThreshold>
      <weakClassifiers>
        <_>
          <internalNodes>
            0 -1 42 -401555179 1679424769 -2146235981 -251595760
            42205880 -1875763176 -830207336 1603723680</internalNodes>
          <leafValues>
            -6.6457021236419678e-001 2.4542124569416046e-001</leafValues></_>
        <_>
          <internalNodes>
            0 -1 117 395015457 -831990441 -1072971745 677102545
            167850340 -1833877342 -645324523 -734608509</internalNodes>
          <leafValues>
            -5.3795343637466431e-001 3.7034094333648682e-001</leafValues></_>
        <_>
          <internalNodes>
            0 -1 33 -2139199789 1380368779 369296141 954984 1661636710
            805437954 -251075487 -29198044</internalNodes>
          <leafValues>
            -5.5700433254241943e-001 3.1500461697578430e-001</leafValues></_>
        <_>
          <internalNodes>
            0 -1 65 -847381826 -1610264428 -1817698152 1721733583
            1310048408 84606983 -1446797294 -1096197244</internalNodes>
          <leafValues>
            -4.2646557092666626e-001 4.2048087716102600e-001</leafValues></_>
        <_>
          <internalNodes>
            0 -1 19 560610683 143425536 201474067 439455747 1627974046
            1258815658 1191706694 1994888180</internalNodes>
          <leafValues>
            -4.4577410817146301e-001 3.8736101984977722e-001</leafValues></_>
        <_>
          <internalNodes>
            0 -1 141 -773653722 1090683329 1816551448 1916859973
            824389709 -1962934272 1233846331 -200587127</internalNodes>
          <leafValues>
            -5.2593588829040527e-001 2.9593208432197571e-001</leafValues></_>
        <_>
          <internalNodes>
            0 -1 174 -1575479032 361406960 755008537 -1722791086
            -1702753730 -360611711 -1524483671 246699073</internalNodes>
          <leafValues>
            -5.8774417638778687e-001 2.9673990607261658e-001</leafValues></_></weakClassifiers></_>
    <!-- stage 20 -->
    <_>
      <maxWeakCount>5</maxWeakCount>
      <stageThreshold>-1.2622072696685791e+000</stageThreshold>
      <weakClassifiers>
        <_>
          <internalNodes>
            0 -1 48 -1959110576 779857459 1220251477 1383509230
            267342736 75398951 -1636863363 1943311453</internalNodes>
          <leafValues>
            -6.2667751312255859e-001 1.</leafValues></_>
        <_>
          <internalNodes>
            0 -1 111 1150300475 531609392 582119269 1361333021 711323366
            -1133021711 880587827 48990265</internalNodes>
          <leafValues>
            -4.2662563920021057e-001 8.6455792188644409e-001</leafValues></_>
        <_>
          <internalNodes>
            0 -1 0 574193185 1139279079 1875550004 409904922 1582771220
            268400508 -2145684343 -2007890685</internalNodes>
          <leafValues>
            -3.9623594284057617e-001 8.9044469594955444e-001</leafValues></_>
        <_>
          <internalNodes>
            0 -1 115 1921668284 805273599 -1493291502 996372414
            516908491 805273471 -1275116223 189159098</internalNodes>
          <leafValues>
            -4.7855162620544434e-001 7.6043665409088135e-001</leafValues></_>
        <_>
          <internalNodes>
            0 -1 15 -1589509120 -1055850478 8388608 -1056436151 65667
            134217736 134250899 -1735536504</internalNodes>
          <leafValues>
            -5.7310485839843750e-001 7.3746252059936523e-001</leafValues></_></weakClassifiers></_>
    <!-- stage 21 -->
    <_>
      <maxWeakCount>4</maxWeakCount>
      <stageThreshold>-1.1972297430038452e+000</stageThreshold>
      <weakClassifiers>
        <_>
          <internalNodes>
            0 -1 1 809533513 1224736776 536871432 268976128 -1879048062
            -1744830464 2 1342504970</internalNodes>
          <leafValues>
            -7.7055102586746216e-001 8.9821881055831909e-001</leafValues></_>
        <_>
          <internalNodes>
            0 -1 168 20553 -2147450878 98304 268500993 -1610604541
            301989888 4210 17137683</internalNodes>
          <leafValues>
            -6.5406817197799683e-001 9.4297540187835693e-001</leafValues></_>
        <_>
          <internalNodes>
            0 -1 118 242068004 201420661 -1426374684 924858984
            1182008637 -2133099195 1600131458 38286434</internalNodes>
          <leafValues>
            -6.1469280719757080e-001 8.9424461126327515e-001</leafValues></_>
        <_>
          <internalNodes>
            0 -1 188 29851778 150994946 320 -2147483629 65800
            -2147483520 128 276873216</internalNodes>
          <leafValues>
            -6.6685515642166138e-001 8.6148810386657715e-001</leafValues></_></weakClassifiers></_></stages>
  <features>
    <_>
      <rect>
        0 0 19 15</rect></_>
    <_>
      <rect>
        0 2 3 2</rect></_>
    <_>
      <rect>
        0 2 7 13</rect></_>
    <_>
      <rect>
        0 2 18 15</rect></_>
    <_>
      <rect>
        0 3 7 8</rect></_>
    <_>
      <rect>
        0 7 14 14</rect></_>
    <_>
      <rect>
        0 21 6 9</rect></_>
    <_>
      <rect>
        0 31 11 5</rect></_>
    <_>
      <rect>
        1 0 8 16</rect></_>
    <_>
      <rect>
        1 0 19 8</rect></_>
    <_>
      <rect>
        1 3 9 5</rect></_>
    <_>
      <rect>
        1 16 18 11</rect></_>
    <_>
      <rect>
        1 18 10 10</rect></_>
    <_>
      <rect>
        1 19 18 9</rect></_>
    <_>
      <rect>
        1 27 7 6</rect></_>
    <_>
      <rect>
        2 2 5 6</rect></_>
    <_>
      <rect>
        2 15 6 4</rect></_>
    <_>
      <rect>
        2 17 5 5</rect></_>
    <_>
      <rect>
        2 20 6 8</rect></_>
    <_>
      <rect>
        2 31 2 2</rect></_>
    <_>
      <rect>
        3 1 7 3</rect></_>
    <_>
      <rect>
        3 25 4 3</rect></_>
    <_>
      <rect>
        4 0 16 4</rect></_>
    <_>
      <rect>
        4 13 15 11</rect></_>
    <_>
      <rect>
        5 6 10 12</rect></_>
    <_>
      <rect>
        6 0 17 13</rect></_>
    <_>
      <rect>
        6 5 16 12</rect></_>
    <_>
      <rect>
        7 13 4 4</rect></_>
    <_>
      <rect>
        7 28 2 2</rect></_>
    <_>
      <rect>
        8 16 14 8</rect></_>
    <_>
      <rect>
        8 19 16 3</rect></_>
    <_>
      <rect>
        8 19 16 10</rect></_>
    <_>
      <rect>
        10 9 14 5</rect></_>
    <_>
      <rect>
        10 26 2 4</rect></_>
    <_>
      <rect>
        11 1 12 8</rect></_>
    <_>
      <rect>
        11 10 16 5</rect></_>
    <_>
      <rect>
        11 26 3 2</rect></_>
    <_>
      <rect>
        12 3 14 7</rect></_>
    <_>
      <rect>
        12 5 15 6</rect></_>
    <_>
      <rect>
        12 19 15 10</rect></_>
    <_>
      <rect>
        12 23 7 4</rect></_>
    <_>
      <rect>
        12 32 1 2</rect></_>
    <_>
      <rect>
        13 7 14 6</rect></_>
    <_>
      <rect>
        13 7 16 6</rect></_>
    <_>
      <rect>
        13 11 15 10</rect></_>
    <_>
      <rect>
        13 20 1 1</rect></_>
    <_>
      <rect>
        13 20 7 5</rect></_>
    <_>
      <rect>
        13 30 1 1</rect></_>
    <_>
      <rect>
        14 8 15 5</rect></_>
    <_>
      <rect>
        14 9 12 6</rect></_>
    <_>
      <rect>
        14 30 1 2</rect></_>
    <_>
      <rect>
        14 35 2 2</rect></_>
    <_>
      <rect>
        15 2 6 12</rect></_>
    <_>
      <rect>
        15 2 11 12</rect></_>
    <_>
      <rect>
        15 2 14 12</rect></_>
    <_>
      <rect>
        15 7 14 6</rect></_>
    <_>
      <rect>
        15 12 13 10</rect></_>
    <_>
      <rect>
        15 15 6 4</rect></_>
    <_>
      <rect>
        15 18 15 10</rect></_>
    <_>
      <rect>
        15 29 1 1</rect></_>
    <_>
      <rect>
        16 4 11 13</rect></_>
    <_>
      <rect>
        16 4 16 15</rect></_>
    <_>
      <rect>
        16 6 15 8</rect></_>
    <_>
      <rect>
        16 10 13 6</rect></_>
    <_>
      <rect>
        16 23 8 5</rect></_>
    <_>
      <rect>
        17 7 9 11</rect></_>
    <_>
      <rect>
        17 21 1 1</rect></_>
    <_>
      <rect>
        17 21 6 6</rect></_>
    <_>
      <rect>
        18 1 12 7</rect></_>
    <_>
      <rect>
        18 3 13 11</rect></_>
    <_>
      <rect>
        18 7 8 5</rect></_>
    <_>
      <rect>
        18 7 10 7</rect></_>
    <_>
      <rect>
        18 7 15 5</rect></_>
    <_>
      <rect>
        18 8 15 10</rect></_>
    <_>
      <rect>
        18 9 8 5</rect></_>
    <_>
      <rect>
        18 13 1 1</rect></_>
    <_>
      <rect>
        18 13 4 3</rect></_>
    <_>
      <rect>
        18 14 4 5</rect></_>
    <_>
      <rect>
        18 19 7 4</rect></_>
    <_>
      <rect>
        19 0 8 3</rect></_>
    <_>
      <rect>
        19 2 5 3</rect></_>
    <_>
      <rect>
        19 5 10 13</rect></_>
    <_>
      <rect>
        19 7 5 6</rect></_>
    <_>
      <rect>
        19 8 9 10</rect></_>
    <_>
      <rect>
        19 14 8 6</rect></_>
    <_>
      <rect>
        19 23 2 2</rect></_>
    <_>
      <rect>
        19 32 12 4</rect></_>
    <_>
      <rect>
        20 0 11 14</rect></_>
    <_>
      <rect>
        20 23 6 4</rect></_>
    <_>
      <rect>
        21 14 1 1</rect></_>
    <_>
      <rect>
        21 22 1 1</rect></_>
    <_>
      <rect>
        21 22 7 4</rect></_>
    <_>
      <rect>
        22 2 11 14</rect></_>
    <_>
      <rect>
        22 3 8 12</rect></_>
    <_>
      <rect>
        22 8 2 2</rect></_>
    <_>
      <rect>
        22 12 9 3</rect></_>
    <_>
      <rect>
        22 12 9 4</rect></_>
    <_>
      <rect>
        22 14 1 1</rect></_>
    <_>
      <rect>
        22 18 2 3</rect></_>
    <_>
      <rect>
        23 1 7 2</rect></_>
    <_>
      <rect>
        23 1 13 7</rect></_>
    <_>
      <rect>
        23 6 10 13</rect></_>
    <_>
      <rect>
        24 6 9 9</rect></_>
    <_>
      <rect>
        24 13 7 12</rect></_>
    <_>
      <rect>
        24 35 9 4</rect></_>
    <_>
      <rect>
        25 3 11 8</rect></_>
    <_>
      <rect>
        25 3 12 10</rect></_>
    <_>
      <rect>
        25 7 6 4</rect></_>
    <_>
      <rect>
        25 10 6 6</rect></_>
    <_>
      <rect>
        25 13 6 7</rect></_>
    <_>
      <rect>
        25 16 4 2</rect></_>
    <_>
      <rect>
        26 0 5 3</rect></_>
    <_>
      <rect>
        26 8 4 2</rect></_>
    <_>
      <rect>
        26 9 4 4</rect></_>
    <_>
      <rect>
        27 8 5 3</rect></_>
    <_>
      <rect>
        27 10 7 5</rect></_>
    <_>
      <rect>
        27 15 9 4</rect></_>
    <_>
      <rect>
        27 23 2 2</rect></_>
    <_>
      <rect>
        27 31 9 5</rect></_>
    <_>
      <rect>
        28 0 5 4</rect></_>
    <_>
      <rect>
        28 2 6 5</rect></_>
    <_>
      <rect>
        28 3 10 9</rect></_>
    <_>
      <rect>
        28 4 10 12</rect></_>
    <_>
      <rect>
        28 9 9 9</rect></_>
    <_>
      <rect>
        28 10 6 5</rect></_>
    <_>
      <rect>
        28 14 5 5</rect></_>
    <_>
      <rect>
        28 21 5 4</rect></_>
    <_>
      <rect>
        28 22 7 5</rect></_>
    <_>
      <rect>
        28 24 2 2</rect></_>
    <_>
      <rect>
        28 31 7 4</rect></_>
    <_>
      <rect>
        28 34 5 4</rect></_>
    <_>
      <rect>
        29 12 8 7</rect></_>
    <_>
      <rect>
        29 16 3 2</rect></_>
    <_>
      <rect>
        29 19 6 6</rect></_>
    <_>
      <rect>
        29 22 1 1</rect></_>
    <_>
      <rect>
        30 11 4 3</rect></_>
    <_>
      <rect>
        30 12 7 5</rect></_>
    <_>
      <rect>
        30 21 2 2</rect></_>
    <_>
      <rect>
        31 0 5 3</rect></_>
    <_>
      <rect>
        31 10 5 5</rect></_>
    <_>
      <rect>
        31 16 1 1</rect></_>
    <_>
      <rect>
        31 17 6 5</rect></_>
    <_>
      <rect>
        31 20 8 4</rect></_>
    <_>
      <rect>
        31 21 1 1</rect></_>
    <_>
      <rect>
        31 22 4 3</rect></_>
    <_>
      <rect>
        32 7 2 3</rect></_>
    <_>
      <rect>
        32 10 3 3</rect></_>
    <_>
      <rect>
        32 12 1 1</rect></_>
    <_>
      <rect>
        32 20 3 3</rect></_>
    <_>
      <rect>
        32 22 1 1</rect></_>
    <_>
      <rect>
        33 17 1 1</rect></_>
    <_>
      <rect>
        33 19 7 5</rect></_>
    <_>
      <rect>
        33 20 6 5</rect></_>
    <_>
      <rect>
        33 33 4 4</rect></_>
    <_>
      <rect>
        33 37 4 4</rect></_>
    <_>
      <rect>
        34 0 6 6</rect></_>
    <_>
      <rect>
        36 9 3 3</rect></_>
    <_>
      <rect>
        37 15 1 1</rect></_>
    <_>
      <rect>
        37 21 9 8</rect></_>
    <_>
      <rect>
        37 31 9 6</rect></_>
    <_>
      <rect>
        38 5 1 2</rect></_>
    <_>
      <rect>
        38 19 4 4</rect></_>
    <_>
      <rect>
        38 20 1 1</rect></_>
    <_>
      <rect>
        38 22 1 1</rect></_>
    <_>
      <rect>
        38 23 1 1</rect></_>
    <_>
      <rect>
        39 0 6 5</rect></_>
    <_>
      <rect>
        39 4 8 11</rect></_>
    <_>
      <rect>
        39 22 8 9</rect></_>
    <_>
      <rect>
        41 0 7 5</rect></_>
    <_>
      <rect>
        43 10 7 12</rect></_>
    <_>
      <rect>
        45 14 1 1</rect></_>
    <_>
      <rect>
        45 22 1 1</rect></_>
    <_>
      <rect>
        45 24 1 1</rect></_>
    <_>
      <rect>
        46 5 6 11</rect></_>
    <_>
      <rect>
        46 9 4 4</rect></_>
    <_>
      <rect>
        46 14 1 1</rect></_>
    <_>
      <rect>
        46 18 6 9</rect></_>
    <_>
      <rect>
        46 20 1 2</rect></_>
    <_>
      <rect>
        46 25 5 8</rect></_>
    <_>
      <rect>
        47 6 5 13</rect></_>
    <_>
      <rect>
        49 4 5 4</rect></_>
    <_>
      <rect>
        49 5 5 5</rect></_>
    <_>
      <rect>
        49 16 1 1</rect></_>
    <_>
      <rect>
        49 22 1 2</rect></_>
    <_>
      <rect>
        50 26 4 3</rect></_>
    <_>
      <rect>
        51 16 4 8</rect></_>
    <_>
      <rect>
        52 12 4 9</rect></_>
    <_>
      <rect>
        53 17 1 1</rect></_>
    <_>
      <rect>
        57 19 2 6</rect></_></features></cascade>
</opencv_storage>
